#include "magic_wand_model_data.h"

// We need to keep the data array aligned on some architectures.
#ifdef __has_attribute
#define HAVE_ATTRIBUTE(x) __has_attribute(x)
#else
#define HAVE_ATTRIBUTE(x) 0
#endif
#if HAVE_ATTRIBUTE(aligned) || (defined(__GNUC__) && !defined(__clang__))
#define DATA_ALIGN_ATTRIBUTE __attribute__((aligned(4)))
#else
#define DATA_ALIGN_ATTRIBUTE
#endif

const unsigned char g_magic_wand_model_data[] DATA_ALIGN_ATTRIBUTE = {
  0x1c, 0x00, 0x00, 0x00, 0x54, 0x46, 0x4c, 0x33, 0x14, 0x00, 0x20, 0x00,
  0x04, 0x00, 0x08, 0x00, 0x0c, 0x00, 0x10, 0x00, 0x14, 0x00, 0x00, 0x00,
  0x18, 0x00, 0x1c, 0x00, 0x14, 0x00, 0x00, 0x00, 0x03, 0x00, 0x00, 0x00,
  0x18, 0x00, 0x00, 0x00, 0x2c, 0x00, 0x00, 0x00, 0xd8, 0x00, 0x00, 0x00,
  0x2c, 0x00, 0x00, 0x00, 0x80, 0x00, 0x00, 0x00, 0x78, 0x00, 0x00, 0x00,
  0x05, 0x00, 0x00, 0x00, 0x28, 0x07, 0x00, 0x00, 0x44, 0x06, 0x00, 0x00,
  0xbc, 0x03, 0x00, 0x00, 0xf8, 0x02, 0x00, 0x00, 0xac, 0x01, 0x00, 0x00,
  0x01, 0x00, 0x00, 0x00, 0xd0, 0x00, 0x00, 0x00, 0x14, 0x00, 0x00, 0x00,
  0x98, 0x32, 0x00, 0x00, 0x94, 0x32, 0x00, 0x00, 0x8c, 0x31, 0x00, 0x00,
  0xd8, 0x30, 0x00, 0x00, 0x30, 0x30, 0x00, 0x00, 0xbc, 0x2f, 0x00, 0x00,
  0x50, 0x2f, 0x00, 0x00, 0x00, 0x13, 0x00, 0x00, 0xec, 0x11, 0x00, 0x00,
  0x10, 0x10, 0x00, 0x00, 0xb4, 0x07, 0x00, 0x00, 0x6c, 0x32, 0x00, 0x00,
  0x68, 0x32, 0x00, 0x00, 0x64, 0x32, 0x00, 0x00, 0x60, 0x32, 0x00, 0x00,
  0x5c, 0x32, 0x00, 0x00, 0x58, 0x32, 0x00, 0x00, 0x54, 0x32, 0x00, 0x00,
  0x50, 0x32, 0x00, 0x00, 0x3c, 0x00, 0x00, 0x00, 0x00, 0x00, 0x00, 0x00,
  0x01, 0x00, 0x00, 0x00, 0x0c, 0x00, 0x00, 0x00, 0x08, 0x00, 0x0c, 0x00,
  0x04, 0x00, 0x08, 0x00, 0x08, 0x00, 0x00, 0x00, 0x08, 0x00, 0x00, 0x00,
  0x13, 0x00, 0x00, 0x00, 0x13, 0x00, 0x00, 0x00, 0x6d, 0x69, 0x6e, 0x5f,
  0x72, 0x75, 0x6e, 0x74, 0x69, 0x6d, 0x65, 0x5f, 0x76, 0x65, 0x72, 0x73,
  0x69, 0x6f, 0x6e, 0x00, 0xfa, 0xce, 0xff, 0xff, 0x04, 0x00, 0x00, 0x00,
  0x10, 0x00, 0x00, 0x00, 0x31, 0x2e, 0x35, 0x2e, 0x30, 0x00, 0x00, 0x00,
  0x00, 0x00, 0x00, 0x00, 0x00, 0x00, 0x00, 0x00, 0x0f, 0x00, 0x00, 0x00,
  0x4d, 0x4c, 0x49, 0x52, 0x20, 0x43, 0x6f, 0x6e, 0x76, 0x65, 0x72, 0x74,
  0x65, 0x64, 0x2e, 0x00, 0x00, 0x00, 0x0e, 0x00, 0x18, 0x00, 0x04, 0x00,
  0x08, 0x00, 0x0c, 0x00, 0x10, 0x00, 0x14, 0x00, 0x0e, 0x00, 0x00, 0x00,
  0x14, 0x00, 0x00, 0x00, 0x5c, 0x00, 0x00, 0x00, 0x60, 0x00, 0x00, 0x00,
  0x64, 0x00, 0x00, 0x00, 0x84, 0x00, 0x00, 0x00, 0x12, 0x00, 0x00, 0x00,
  0x58, 0x31, 0x00, 0x00, 0xe8, 0x30, 0x00, 0x00, 0x44, 0x30, 0x00, 0x00,
  0x9c, 0x2f, 0x00, 0x00, 0xf4, 0x2e, 0x00, 0x00, 0x94, 0x2e, 0x00, 0x00,
  0x2c, 0x2e, 0x00, 0x00, 0xd8, 0x11, 0x00, 0x00, 0xbc, 0x10, 0x00, 0x00,
  0xe0, 0x0e, 0x00, 0x00, 0x0c, 0x06, 0x00, 0x00, 0x28, 0x05, 0x00, 0x00,
  0xe8, 0x03, 0x00, 0x00, 0x3c, 0x03, 0x00, 0x00, 0x98, 0x02, 0x00, 0x00,
  0xd4, 0x01, 0x00, 0x00, 0x10, 0x01, 0x00, 0x00, 0x84, 0x00, 0x00, 0x00,
  0x01, 0x00, 0x00, 0x00, 0x00, 0x00, 0x00, 0x00, 0x01, 0x00, 0x00, 0x00,
  0x11, 0x00, 0x00, 0x00, 0x08, 0x00, 0x00, 0x00, 0x74, 0x05, 0x00, 0x00,
  0x94, 0x04, 0x00, 0x00, 0x78, 0x03, 0x00, 0x00, 0xbc, 0x02, 0x00, 0x00,
  0x30, 0x02, 0x00, 0x00, 0x50, 0x01, 0x00, 0x00, 0xa8, 0x00, 0x00, 0x00,
  0x10, 0x00, 0x00, 0x00, 0x04, 0x00, 0x00, 0x00, 0x6d, 0x61, 0x69, 0x6e,
  0x00, 0x00, 0x00, 0x00, 0x7a, 0xff, 0xff, 0xff, 0x00, 0x00, 0x00, 0x09,
  0x04, 0x00, 0x00, 0x00, 0x1c, 0x00, 0x00, 0x00, 0x10, 0x00, 0x00, 0x00,
  0x04, 0x00, 0x00, 0x00, 0xf6, 0xcf, 0xff, 0xff, 0x00, 0x00, 0x80, 0x3f,
  0x01, 0x00, 0x00, 0x00, 0x11, 0x00, 0x00, 0x00, 0x01, 0x00, 0x00, 0x00,
  0x10, 0x00, 0x00, 0x00, 0xa0, 0xfa, 0xff, 0xff, 0x19, 0x00, 0x00, 0x00,
  0x00, 0x00, 0x00, 0x19, 0x01, 0x00, 0x00, 0x00, 0x84, 0xcf, 0xff, 0xff,
  0x14, 0x00, 0x00, 0x00, 0x12, 0x00, 0x00, 0x00, 0x18, 0x00, 0x00, 0x00,
  0x30, 0x00, 0x00, 0x00, 0x20, 0x00, 0x00, 0x00, 0x02, 0x00, 0x00, 0x00,
  0x01, 0x00, 0x00, 0x00, 0x03, 0x00, 0x00, 0x00, 0x08, 0x00, 0x00, 0x00,
  0x49, 0x64, 0x65, 0x6e, 0x74, 0x69, 0x74, 0x79, 0x00, 0x00, 0x00, 0x00,
  0x02, 0x00, 0x00, 0x00, 0xff, 0xff, 0xff, 0xff, 0x03, 0x00, 0x00, 0x00,
  0x68, 0xd0, 0xff, 0xff, 0x00, 0x00, 0x0e, 0x00, 0x18, 0x00, 0x08, 0x00,
  0x0c, 0x00, 0x10, 0x00, 0x07, 0x00, 0x14, 0x00, 0x0e, 0x00, 0x00, 0x00,
  0x00, 0x00, 0x00, 0x08, 0x03, 0x00, 0x00, 0x00, 0x18, 0x00, 0x00, 0x00,
  0x0c, 0x00, 0x00, 0x00, 0x04, 0x00, 0x00, 0x00, 0x84, 0xcf, 0xff, 0xff,
  0x01, 0x00, 0x00, 0x00, 0x10, 0x00, 0x00, 0x00, 0x03, 0x00, 0x00, 0x00,
  0x0f, 0x00, 0x00, 0x00, 0x07, 0x00, 0x00, 0x00, 0x04, 0x00, 0x00, 0x00,
  0x0c, 0xd0, 0xff, 0xff, 0x14, 0x00, 0x00, 0x00, 0x11, 0x00, 0x00, 0x00,
  0x18, 0x00, 0x00, 0x00, 0x5c, 0x00, 0x00, 0x00, 0x4c, 0x00, 0x00, 0x00,
  0x02, 0x00, 0x00, 0x00, 0x01, 0x00, 0x00, 0x00, 0x03, 0x00, 0x00, 0x00,
  0x34, 0x00, 0x00, 0x00, 0x73, 0x65, 0x71, 0x75, 0x65, 0x6e, 0x74, 0x69,
  0x61, 0x6c, 0x2f, 0x64, 0x65, 0x6e, 0x73, 0x65, 0x5f, 0x31, 0x2f, 0x4d,
  0x61, 0x74, 0x4d, 0x75, 0x6c, 0x3b, 0x73, 0x65, 0x71, 0x75, 0x65, 0x6e,
  0x74, 0x69, 0x61, 0x6c, 0x2f, 0x64, 0x65, 0x6e, 0x73, 0x65, 0x5f, 0x31,
  0x2f, 0x42, 0x69, 0x61, 0x73, 0x41, 0x64, 0x64, 0x00, 0x00, 0x00, 0x00,
  0x02, 0x00, 0x00, 0x00, 0xff, 0xff, 0xff, 0xff, 0x03, 0x00, 0x00, 0x00,
  0x0c, 0xd0, 0xff, 0xff, 0xda, 0xfc, 0xff, 0xff, 0x00, 0x00, 0x00, 0x08,
  0x03, 0x00, 0x00, 0x00, 0x24, 0x00, 0x00, 0x00, 0x18, 0x00, 0x00, 0x00,
  0x0c, 0x00, 0x00, 0x00, 0x00, 0x00, 0x06, 0x00, 0x08, 0x00, 0x07, 0x00,
  0x06, 0x00, 0x00, 0x00, 0x00, 0x00, 0x00, 0x01, 0x01, 0x00, 0x00, 0x00,
  0x0f, 0x00, 0x00, 0x00, 0x03, 0x00, 0x00, 0x00, 0x0e, 0x00, 0x00, 0x00,
  0x06, 0x00, 0x00, 0x00, 0x03, 0x00, 0x00, 0x00, 0xe8, 0xfb, 0xff, 0xff,
  0x09, 0x00, 0x00, 0x00, 0x00, 0x00, 0x00, 0x09, 0x01, 0x00, 0x00, 0x00,
  0xcc, 0xd0, 0xff, 0xff, 0x14, 0x00, 0x00, 0x00, 0x10, 0x00, 0x00, 0x00,
  0x18, 0x00, 0x00, 0x00, 0x6c, 0x00, 0x00, 0x00, 0x5c, 0x00, 0x00, 0x00,
  0x02, 0x00, 0x00, 0x00, 0x01, 0x00, 0x00, 0x00, 0x10, 0x00, 0x00, 0x00,
  0x46, 0x00, 0x00, 0x00, 0x73, 0x65, 0x71, 0x75, 0x65, 0x6e, 0x74, 0x69,
  0x61, 0x6c, 0x2f, 0x64, 0x65, 0x6e, 0x73, 0x65, 0x2f, 0x4d, 0x61, 0x74,
  0x4d, 0x75, 0x6c, 0x3b, 0x73, 0x65, 0x71, 0x75, 0x65, 0x6e, 0x74, 0x69,
  0x61, 0x6c, 0x2f, 0x64, 0x65, 0x6e, 0x73, 0x65, 0x2f, 0x52, 0x65, 0x6c,
  0x75, 0x3b, 0x73, 0x65, 0x71, 0x75, 0x65, 0x6e, 0x74, 0x69, 0x61, 0x6c,
  0x2f, 0x64, 0x65, 0x6e, 0x73, 0x65, 0x2f, 0x42, 0x69, 0x61, 0x73, 0x41,
  0x64, 0x64, 0x00, 0x00, 0x02, 0x00, 0x00, 0x00, 0xff, 0xff, 0xff, 0xff,
  0x10, 0x00, 0x00, 0x00, 0xec, 0xd1, 0xff, 0xff, 0x00, 0x00, 0x0a, 0x00,
  0x10, 0x00, 0x04, 0x00, 0x08, 0x00, 0x0c, 0x00, 0x0a, 0x00, 0x00, 0x00,
  0x02, 0x00, 0x00, 0x00, 0x10, 0x00, 0x00, 0x00, 0x04, 0x00, 0x00, 0x00,
  0x01, 0x00, 0x00, 0x00, 0x0e, 0x00, 0x00, 0x00, 0x02, 0x00, 0x00, 0x00,
  0x0d, 0x00, 0x00, 0x00, 0x05, 0x00, 0x00, 0x00, 0xa8, 0xfc, 0xff, 0xff,
  0x16, 0x00, 0x00, 0x00, 0x00, 0x00, 0x00, 0x16, 0x01, 0x00, 0x00, 0x00,
  0x8c, 0xd1, 0xff, 0xff, 0x14, 0x00, 0x00, 0x00, 0x0f, 0x00, 0x00, 0x00,
  0x18, 0x00, 0x00, 0x00, 0x40, 0x00, 0x00, 0x00, 0x30, 0x00, 0x00, 0x00,
  0x02, 0x00, 0x00, 0x00, 0x01, 0x00, 0x00, 0x00, 0x70, 0x00, 0x00, 0x00,
  0x1a, 0x00, 0x00, 0x00, 0x73, 0x65, 0x71, 0x75, 0x65, 0x6e, 0x74, 0x69,
  0x61, 0x6c, 0x2f, 0x66, 0x6c, 0x61, 0x74, 0x74, 0x65, 0x6e, 0x2f, 0x52,
  0x65, 0x73, 0x68, 0x61, 0x70, 0x65, 0x00, 0x00, 0x02, 0x00, 0x00, 0x00,
  0xff, 0xff, 0xff, 0xff, 0x70, 0x00, 0x00, 0x00, 0x70, 0xd1, 0xff, 0xff,
  0x3e, 0xfe, 0xff, 0xff, 0x00, 0x00, 0x00, 0x05, 0x01, 0x00, 0x00, 0x00,
  0x38, 0x00, 0x00, 0x00, 0x2c, 0x00, 0x00, 0x00, 0x14, 0x00, 0x00, 0x00,
  0x00, 0x00, 0x0e, 0x00, 0x14, 0x00, 0x00, 0x00, 0x10, 0x00, 0x0c, 0x00,
  0x08, 0x00, 0x04, 0x00, 0x0e, 0x00, 0x00, 0x00, 0x03, 0x00, 0x00, 0x00,
  0x01, 0x00, 0x00, 0x00, 0x03, 0x00, 0x00, 0x00, 0x01, 0x00, 0x00, 0x00,
  0x01, 0x00, 0x00, 0x00, 0x0d, 0x00, 0x00, 0x00, 0x01, 0x00, 0x00, 0x00,
  0x0c, 0x00, 0x00, 0x00, 0x2c, 0xd2, 0xff, 0xff, 0x14, 0x00, 0x00, 0x00,
  0x0e, 0x00, 0x00, 0x00, 0x20, 0x00, 0x00, 0x00, 0x58, 0x00, 0x00, 0x00,
  0x40, 0x00, 0x00, 0x00, 0x04, 0x00, 0x00, 0x00, 0x01, 0x00, 0x00, 0x00,
  0x07, 0x00, 0x00, 0x00, 0x01, 0x00, 0x00, 0x00, 0x10, 0x00, 0x00, 0x00,
  0x22, 0x00, 0x00, 0x00, 0x73, 0x65, 0x71, 0x75, 0x65, 0x6e, 0x74, 0x69,
  0x61, 0x6c, 0x2f, 0x6d, 0x61, 0x78, 0x5f, 0x70, 0x6f, 0x6f, 0x6c, 0x69,
  0x6e, 0x67, 0x32, 0x64, 0x5f, 0x31, 0x2f, 0x4d, 0x61, 0x78, 0x50, 0x6f,
  0x6f, 0x6c, 0x00, 0x00, 0x04, 0x00, 0x00, 0x00, 0xff, 0xff, 0xff, 0xff,
  0x07, 0x00, 0x00, 0x00, 0x01, 0x00, 0x00, 0x00, 0x10, 0x00, 0x00, 0x00,
  0x28, 0xd2, 0xff, 0xff, 0x1a, 0xfe, 0xff, 0xff, 0x00, 0x00, 0x00, 0x01,
  0x24, 0x00, 0x00, 0x00, 0x18, 0x00, 0x00, 0x00, 0x04, 0x00, 0x00, 0x00,
  0x0c, 0xfe, 0xff, 0xff, 0x01, 0x00, 0x00, 0x00, 0x01, 0x00, 0x00, 0x00,
  0x00, 0x00, 0x00, 0x01, 0x01, 0x00, 0x00, 0x00, 0x0c, 0x00, 0x00, 0x00,
  0x03, 0x00, 0x00, 0x00, 0x0b, 0x00, 0x00, 0x00, 0x09, 0x00, 0x00, 0x00,
  0x02, 0x00, 0x00, 0x00, 0xd4, 0xd2, 0xff, 0xff, 0x14, 0x00, 0x00, 0x00,
  0x0d, 0x00, 0x00, 0x00, 0x20, 0x00, 0x00, 0x00, 0xb8, 0x00, 0x00, 0x00,
  0xa0, 0x00, 0x00, 0x00, 0x04, 0x00, 0x00, 0x00, 0x01, 0x00, 0x00, 0x00,
  0x15, 0x00, 0x00, 0x00, 0x01, 0x00, 0x00, 0x00, 0x10, 0x00, 0x00, 0x00,
  0x83, 0x00, 0x00, 0x00, 0x73, 0x65, 0x71, 0x75, 0x65, 0x6e, 0x74, 0x69,
  0x61, 0x6c, 0x2f, 0x63, 0x6f, 0x6e, 0x76, 0x32, 0x64, 0x5f, 0x31, 0x2f,
  0x52, 0x65, 0x6c, 0x75, 0x3b, 0x73, 0x65, 0x71, 0x75, 0x65, 0x6e, 0x74,
  0x69, 0x61, 0x6c, 0x2f, 0x63, 0x6f, 0x6e, 0x76, 0x32, 0x64, 0x5f, 0x31,
  0x2f, 0x42, 0x69, 0x61, 0x73, 0x41, 0x64, 0x64, 0x3b, 0x73, 0x65, 0x71,
  0x75, 0x65, 0x6e, 0x74, 0x69, 0x61, 0x6c, 0x2f, 0x63, 0x6f, 0x6e, 0x76,
  0x32, 0x64, 0x5f, 0x31, 0x2f, 0x43, 0x6f, 0x6e, 0x76, 0x32, 0x44, 0x3b,
  0x73, 0x65, 0x71, 0x75, 0x65, 0x6e, 0x74, 0x69, 0x61, 0x6c, 0x2f, 0x63,
  0x6f, 0x6e, 0x76, 0x32, 0x64, 0x5f, 0x31, 0x2f, 0x42, 0x69, 0x61, 0x73,
  0x41, 0x64, 0x64, 0x2f, 0x52, 0x65, 0x61, 0x64, 0x56, 0x61, 0x72, 0x69,
  0x61, 0x62, 0x6c, 0x65, 0x4f, 0x70, 0x2f, 0x72, 0x65, 0x73, 0x6f, 0x75,
  0x72, 0x63, 0x65, 0x00, 0x04, 0x00, 0x00, 0x00, 0xff, 0xff, 0xff, 0xff,
  0x15, 0x00, 0x00, 0x00, 0x01, 0x00, 0x00, 0x00, 0x10, 0x00, 0x00, 0x00,
  0x40, 0xd4, 0xff, 0xff, 0x00, 0x00, 0x0e, 0x00, 0x1a, 0x00, 0x08, 0x00,
  0x0c, 0x00, 0x10, 0x00, 0x07, 0x00, 0x14, 0x00, 0x0e, 0x00, 0x00, 0x00,
  0x00, 0x00, 0x00, 0x05, 0x01, 0x00, 0x00, 0x00, 0x3c, 0x00, 0x00, 0x00,
  0x30, 0x00, 0x00, 0x00, 0x14, 0x00, 0x00, 0x00, 0x00, 0x00, 0x0e, 0x00,
  0x18, 0x00, 0x17, 0x00, 0x10, 0x00, 0x0c, 0x00, 0x08, 0x00, 0x04, 0x00,
  0x0e, 0x00, 0x00, 0x00, 0x03, 0x00, 0x00, 0x00, 0x03, 0x00, 0x00, 0x00,
  0x03, 0x00, 0x00, 0x00, 0x03, 0x00, 0x00, 0x00, 0x00, 0x00, 0x00, 0x01,
  0x01, 0x00, 0x00, 0x00, 0x0b, 0x00, 0x00, 0x00, 0x01, 0x00, 0x00, 0x00,
  0x0a, 0x00, 0x00, 0x00, 0x2c, 0xff, 0xff, 0xff, 0x11, 0x00, 0x00, 0x00,
  0x00, 0x00, 0x00, 0x11, 0x01, 0x00, 0x00, 0x00, 0x10, 0xd4, 0xff, 0xff,
  0x14, 0x00, 0x00, 0x00, 0x0c, 0x00, 0x00, 0x00, 0x20, 0x00, 0x00, 0x00,
  0x58, 0x00, 0x00, 0x00, 0x40, 0x00, 0x00, 0x00, 0x04, 0x00, 0x00, 0x00,
  0x01, 0x00, 0x00, 0x00, 0x15, 0x00, 0x00, 0x00, 0x01, 0x00, 0x00, 0x00,
  0x08, 0x00, 0x00, 0x00, 0x20, 0x00, 0x00, 0x00, 0x73, 0x65, 0x71, 0x75,
  0x65, 0x6e, 0x74, 0x69, 0x61, 0x6c, 0x2f, 0x6d, 0x61, 0x78, 0x5f, 0x70,
  0x6f, 0x6f, 0x6c, 0x69, 0x6e, 0x67, 0x32, 0x64, 0x2f, 0x4d, 0x61, 0x78,
  0x50, 0x6f, 0x6f, 0x6c, 0x00, 0x00, 0x00, 0x00, 0x04, 0x00, 0x00, 0x00,
  0xff, 0xff, 0xff, 0xff, 0x15, 0x00, 0x00, 0x00, 0x01, 0x00, 0x00, 0x00,
  0x08, 0x00, 0x00, 0x00, 0x1c, 0xd5, 0xff, 0xff, 0x00, 0x00, 0x0e, 0x00,
  0x14, 0x00, 0x00, 0x00, 0x08, 0x00, 0x0c, 0x00, 0x07, 0x00, 0x10, 0x00,
  0x0e, 0x00, 0x00, 0x00, 0x00, 0x00, 0x00, 0x01, 0x30, 0x00, 0x00, 0x00,
  0x24, 0x00, 0x00, 0x00, 0x10, 0x00, 0x00, 0x00, 0x0c, 0x00, 0x10, 0x00,
  0x00, 0x00, 0x04, 0x00, 0x08, 0x00, 0x0f, 0x00, 0x0c, 0x00, 0x00, 0x00,
  0x01, 0x00, 0x00, 0x00, 0x01, 0x00, 0x00, 0x00, 0x00, 0x00, 0x00, 0x01,
  0x01, 0x00, 0x00, 0x00, 0x0a, 0x00, 0x00, 0x00, 0x03, 0x00, 0x00, 0x00,
  0x00, 0x00, 0x00, 0x00, 0x08, 0x00, 0x00, 0x00, 0x01, 0x00, 0x00, 0x00,
  0x0c, 0x00, 0x10, 0x00, 0x0b, 0x00, 0x00, 0x00, 0x0c, 0x00, 0x04, 0x00,
  0x0c, 0x00, 0x00, 0x00, 0x03, 0x00, 0x00, 0x00, 0x00, 0x00, 0x00, 0x03,
  0x01, 0x00, 0x00, 0x00, 0xf0, 0xd4, 0xff, 0xff, 0x14, 0x00, 0x00, 0x00,
  0x0b, 0x00, 0x00, 0x00, 0x20, 0x00, 0x00, 0x00, 0xb0, 0x00, 0x00, 0x00,
  0x98, 0x00, 0x00, 0x00, 0x04, 0x00, 0x00, 0x00, 0x01, 0x00, 0x00, 0x00,
  0x40, 0x00, 0x00, 0x00, 0x03, 0x00, 0x00, 0x00, 0x08, 0x00, 0x00, 0x00,
  0x7b, 0x00, 0x00, 0x00, 0x73, 0x65, 0x71, 0x75, 0x65, 0x6e, 0x74, 0x69,
  0x61, 0x6c, 0x2f, 0x63, 0x6f, 0x6e, 0x76, 0x32, 0x64, 0x2f, 0x52, 0x65,
  0x6c, 0x75, 0x3b, 0x73, 0x65, 0x71, 0x75, 0x65, 0x6e, 0x74, 0x69, 0x61,
  0x6c, 0x2f, 0x63, 0x6f, 0x6e, 0x76, 0x32, 0x64, 0x2f, 0x42, 0x69, 0x61,
  0x73, 0x41, 0x64, 0x64, 0x3b, 0x73, 0x65, 0x71, 0x75, 0x65, 0x6e, 0x74,
  0x69, 0x61, 0x6c, 0x2f, 0x63, 0x6f, 0x6e, 0x76, 0x32, 0x64, 0x2f, 0x43,
  0x6f, 0x6e, 0x76, 0x32, 0x44, 0x3b, 0x73, 0x65, 0x71, 0x75, 0x65, 0x6e,
  0x74, 0x69, 0x61, 0x6c, 0x2f, 0x63, 0x6f, 0x6e, 0x76, 0x32, 0x64, 0x2f,
  0x42, 0x69, 0x61, 0x73, 0x41, 0x64, 0x64, 0x2f, 0x52, 0x65, 0x61, 0x64,
  0x56, 0x61, 0x72, 0x69, 0x61, 0x62, 0x6c, 0x65, 0x4f, 0x70, 0x2f, 0x72,
  0x65, 0x73, 0x6f, 0x75, 0x72, 0x63, 0x65, 0x00, 0x04, 0x00, 0x00, 0x00,
  0xff, 0xff, 0xff, 0xff, 0x40, 0x00, 0x00, 0x00, 0x03, 0x00, 0x00, 0x00,
  0x08, 0x00, 0x00, 0x00, 0x44, 0xd5, 0xff, 0xff, 0x4e, 0xd6, 0xff, 0xff,
  0x04, 0x00, 0x00, 0x00, 0x00, 0x08, 0x00, 0x00, 0x8f, 0x29, 0x7b, 0xbe,
  0x30, 0xbf, 0xa1, 0xbe, 0x8a, 0xcd, 0x6f, 0xbe, 0x4c, 0x65, 0xe7, 0xbd,
  0xc8, 0x95, 0x15, 0xbd, 0x73, 0xbd, 0xdf, 0xbd, 0xa3, 0x6d, 0x85, 0xbd,
  0x4c, 0xa7, 0x54, 0xbd, 0x71, 0x49, 0x89, 0x3d, 0x0b, 0x00, 0x28, 0xbe,
  0x72, 0x82, 0x58, 0xbe, 0xd5, 0x81, 0x19, 0x3e, 0x49, 0xe7, 0xec, 0x3d,
  0x39, 0x2c, 0x45, 0x3d, 0x8e, 0xe3, 0x04, 0x3e, 0x02, 0x10, 0xe2, 0xbd,
  0x6c, 0x23, 0x7d, 0xbe, 0xc3, 0xea, 0xa2, 0xbe, 0x65, 0x9a, 0x86, 0xbe,
  0x27, 0x48, 0x9d, 0x3d, 0x54, 0xbd, 0xdb, 0x3d, 0xec, 0x9d, 0x59, 0xbd,
  0x2d, 0x09, 0xe6, 0x3c, 0x98, 0xa4, 0x8b, 0xbd, 0xf8, 0x4a, 0x24, 0xbe,
  0x7b, 0x42, 0x38, 0xbe, 0xc5, 0x81, 0x4c, 0xbe, 0x33, 0xa0, 0x8e, 0x3d,
  0xc1, 0x8b, 0x06, 0x3e, 0x99, 0x91, 0x32, 0xbd, 0x6a, 0xc4, 0x3f, 0xbc,
  0x5a, 0xcc, 0x88, 0x3e, 0x58, 0x6b, 0x5c, 0x3d, 0x03, 0x83, 0x6c, 0xbd,
  0x06, 0x98, 0xd0, 0xbb, 0x0e, 0x9e, 0x99, 0x3d, 0xcc, 0x84, 0xa7, 0xbd,
  0xa8, 0x71, 0x3c, 0xbe, 0xd2, 0xa0, 0x3c, 0xbd, 0x96, 0x3a, 0x94, 0xbe,
  0xe1, 0xb3, 0x22, 0xbe, 0x5f, 0x3e, 0x89, 0xbd, 0x77, 0x3a, 0xca, 0xbc,
  0x22, 0x83, 0x06, 0xba, 0x03, 0x78, 0x18, 0xbe, 0x57, 0x94, 0xc3, 0xbd,
  0xee, 0xf7, 0x6a, 0x3e, 0x8f, 0x7b, 0xa3, 0xbe, 0x51, 0xff, 0x17, 0xbe,
  0xfc, 0xc7, 0x1d, 0x3d, 0x3b, 0xa1, 0xee, 0xbd, 0xc7, 0xd2, 0xf4, 0x3c,
  0x33, 0xc1, 0xd0, 0x3d, 0x0f, 0xf9, 0xc9, 0xbd, 0xad, 0x9c, 0x01, 0x3b,
  0x96, 0x9e, 0xac, 0xbe, 0xf0, 0x4d, 0x2d, 0xbe, 0x9d, 0x3d, 0x1f, 0xbd,
  0x8d, 0xcd, 0x8d, 0xbc, 0x91, 0xfb, 0x05, 0x3e, 0xfa, 0x0f, 0x91, 0x3d,
  0x73, 0xc4, 0x3b, 0xbe, 0xc6, 0xb5, 0xdb, 0x3d, 0xc5, 0xd5, 0x9c, 0xbe,
  0xd0, 0x70, 0x6d, 0xbe, 0x9a, 0xc1, 0xee, 0xbe, 0x76, 0x77, 0xbd, 0xbd,
  0xf2, 0xb0, 0x3d, 0x3c, 0xbb, 0x28, 0x30, 0xbe, 0xf8, 0xc9, 0x03, 0x3e,
  0x8c, 0xaa, 0x84, 0x3d, 0x65, 0xd1, 0x1e, 0x3d, 0x1d, 0xd2, 0x8b, 0xbd,
  0x65, 0x4b, 0xbc, 0xbe, 0x21, 0x31, 0xef, 0xbe, 0xeb, 0x99, 0x8d, 0xbd,
  0xb3, 0x67, 0x37, 0xbd, 0x46, 0x60, 0x99, 0xbe, 0xa7, 0xcd, 0x4f, 0xbd,
  0xb9, 0x22, 0xab, 0xbc, 0x95, 0x18, 0x20, 0x3f, 0x7c, 0x9e, 0xcb, 0x3d,
  0xa4, 0x9d, 0x5c, 0xbe, 0xf1, 0x8e, 0x93, 0xbd, 0xaa, 0x6d, 0x9d, 0xbc,
  0xb9, 0xd2, 0x30, 0xbe, 0xba, 0x7b, 0x68, 0xbd, 0xb4, 0xeb, 0x99, 0xbc,
  0x89, 0xfa, 0xc4, 0x3e, 0x0d, 0x2a, 0x35, 0x3c, 0x5b, 0x22, 0x5d, 0x3d,
  0x77, 0x4c, 0xc7, 0x3c, 0xe4, 0x06, 0x2f, 0x3e, 0x29, 0x47, 0xb3, 0xbd,
  0xe9, 0x12, 0xed, 0xbc, 0x2c, 0x5f, 0x78, 0xbc, 0xe6, 0x2f, 0xd9, 0xbc,
  0x21, 0xd7, 0x39, 0x3e, 0x3e, 0xdb, 0xa1, 0x3e, 0x5e, 0xc4, 0x45, 0xbe,
  0x46, 0x2d, 0x4a, 0x3f, 0x64, 0x12, 0xcd, 0x38, 0x72, 0xc0, 0xc2, 0xbe,
  0x81, 0x32, 0x43, 0xbd, 0x4f, 0x7d, 0x91, 0x3e, 0x96, 0xac, 0xb0, 0x3e,
  0xf2, 0xfc, 0x8d, 0xbc, 0xcf, 0x48, 0x4a, 0xbe, 0xb6, 0x9b, 0x0c, 0xbe,
  0xde, 0x62, 0x42, 0xbd, 0xf4, 0x06, 0x7c, 0xbe, 0x30, 0xfb, 0x81, 0xbe,
  0xb4, 0x05, 0x15, 0xbe, 0x44, 0x44, 0x70, 0x3c, 0xa0, 0x91, 0x63, 0x3e,
  0xcd, 0xf7, 0x5d, 0xbe, 0xd8, 0x60, 0xa9, 0x3b, 0x18, 0x86, 0x22, 0x3e,
  0x16, 0x7a, 0x1c, 0xbe, 0x81, 0xb2, 0x4d, 0xbe, 0xaa, 0x39, 0xd0, 0x3d,
  0x13, 0xe2, 0x39, 0x3e, 0x3f, 0xda, 0x1e, 0xbe, 0xf2, 0xcc, 0x2c, 0xbe,
  0x24, 0x4a, 0xc4, 0xbd, 0x64, 0xfd, 0x07, 0xbe, 0x05, 0xf7, 0x93, 0xbd,
  0x80, 0xa9, 0xb1, 0xbd, 0xdc, 0xaf, 0x4d, 0x3d, 0x78, 0xa5, 0xc3, 0xbd,
  0xa4, 0x13, 0x21, 0xbe, 0x1f, 0x5d, 0x04, 0xbe, 0x5f, 0xf2, 0x0e, 0xbd,
  0x13, 0xbe, 0xa8, 0x3d, 0xec, 0xb9, 0xf9, 0x3a, 0x5f, 0x58, 0xb2, 0x3d,
  0x5b, 0x10, 0xbf, 0xbd, 0x41, 0x65, 0xa7, 0xbe, 0x4a, 0x5f, 0xa7, 0xbe,
  0x89, 0x3a, 0x73, 0xbe, 0xe6, 0xcd, 0x6d, 0xbd, 0x76, 0x97, 0x3b, 0xbd,
  0xfa, 0xae, 0x59, 0xbd, 0x06, 0x98, 0x26, 0x3e, 0xb2, 0xf9, 0x0d, 0xbd,
  0x74, 0x70, 0x04, 0xbe, 0x35, 0x5b, 0x7b, 0xbe, 0xa4, 0x26, 0x2a, 0xbe,
  0x23, 0x17, 0x15, 0xbe, 0xb8, 0x76, 0xad, 0x3c, 0x10, 0x5e, 0x30, 0xbd,
  0xea, 0x48, 0xbc, 0x3e, 0x02, 0x89, 0x08, 0xbd, 0xc4, 0x73, 0xd4, 0x3c,
  0x68, 0x97, 0x2b, 0xbe, 0xc6, 0x24, 0x03, 0xbf, 0x0e, 0xc7, 0xc3, 0xbd,
  0x57, 0x37, 0xa3, 0xbd, 0xee, 0x2b, 0xa2, 0x3b, 0xcf, 0xd0, 0xaa, 0xbe,
  0x23, 0xbf, 0x8a, 0xbe, 0x61, 0x7e, 0xd9, 0xbe, 0xff, 0x89, 0xd2, 0xbe,
  0x5c, 0x97, 0x92, 0xbe, 0x0c, 0xb7, 0x06, 0xbe, 0xbd, 0x71, 0x8f, 0xbd,
  0x96, 0x79, 0x87, 0xbe, 0x3f, 0x0b, 0x0e, 0x3e, 0x39, 0x94, 0x4a, 0x3c,
  0x98, 0x99, 0xd4, 0xbd, 0x7c, 0xdc, 0x93, 0x3d, 0x7f, 0x46, 0x90, 0xbe,
  0x34, 0x1e, 0x11, 0xbb, 0x9d, 0xa5, 0xf9, 0x3c, 0x39, 0x9e, 0x59, 0xbe,
  0xa3, 0x2c, 0x9d, 0x3c, 0xf8, 0x3a, 0x3b, 0x3e, 0xc0, 0x2b, 0x65, 0x3d,
  0x62, 0xc8, 0x02, 0x3d, 0x37, 0x15, 0x65, 0xbe, 0x5f, 0xc1, 0x01, 0xbe,
  0x18, 0xbf, 0x60, 0xbd, 0x1b, 0x66, 0xa5, 0xbe, 0x5e, 0x46, 0x45, 0xbc,
  0x0e, 0x43, 0x94, 0x3e, 0xc2, 0xc5, 0x38, 0x3e, 0x10, 0x37, 0x83, 0x3d,
  0x9a, 0xfb, 0x26, 0xbe, 0xc3, 0x15, 0x08, 0x3f, 0xda, 0xb0, 0x58, 0x3e,
  0x3c, 0x30, 0x05, 0xbe, 0x6d, 0x6f, 0x69, 0xbe, 0xdd, 0x98, 0xc6, 0x3e,
  0x8d, 0x7e, 0x01, 0x3e, 0x5d, 0x2d, 0xf0, 0x3c, 0x25, 0x85, 0xdf, 0xbd,
  0x90, 0x87, 0x7e, 0xbe, 0x59, 0x6f, 0x88, 0xbe, 0xeb, 0xc7, 0x4d, 0x3e,
  0xa8, 0x55, 0x99, 0xbe, 0x72, 0x22, 0xdf, 0x3e, 0x4d, 0x51, 0xb2, 0x3d,
  0x5d, 0x54, 0x90, 0x3e, 0xb7, 0xce, 0x5e, 0xbe, 0x64, 0x8c, 0xcd, 0xbd,
  0x64, 0x26, 0x02, 0x3e, 0xd1, 0x09, 0x2f, 0xbe, 0x3a, 0x6b, 0x9d, 0xbe,
  0x7d, 0x9b, 0xd1, 0x3c, 0x1e, 0x78, 0xa3, 0xbd, 0x73, 0x7d, 0x06, 0x3e,
  0xf8, 0x06, 0xf9, 0xbd, 0x9e, 0x55, 0x8e, 0x3e, 0x93, 0x50, 0xa1, 0x3e,
  0xff, 0xcd, 0x66, 0xbe, 0x0a, 0x5c, 0x69, 0x3d, 0x65, 0x7c, 0x93, 0xbd,
  0x27, 0x37, 0x42, 0x3e, 0x50, 0x47, 0xa0, 0x3e, 0x3d, 0x62, 0x0f, 0xbe,
  0xd6, 0xf1, 0x3c, 0xbd, 0xa0, 0xec, 0x6b, 0x3b, 0x83, 0x8d, 0x10, 0xbe,
  0xb2, 0x82, 0x59, 0x3d, 0xae, 0xe6, 0x28, 0x3e, 0x29, 0xff, 0x97, 0x3e,
  0x61, 0x39, 0x0e, 0x3f, 0xb3, 0x5b, 0x2b, 0xbd, 0x17, 0xeb, 0x22, 0xbd,
  0x76, 0xc7, 0x93, 0x3d, 0x13, 0xde, 0x40, 0xbc, 0xab, 0xeb, 0x16, 0x3d,
  0xb9, 0xa3, 0x79, 0x3e, 0xc2, 0x2d, 0xa1, 0x3e, 0x4d, 0x8b, 0x56, 0xbe,
  0xb1, 0x85, 0x8e, 0xbd, 0xa7, 0x9f, 0xa0, 0x3c, 0x62, 0x36, 0x93, 0xbd,
  0x06, 0xc2, 0x95, 0xbb, 0x00, 0x91, 0x11, 0xbd, 0x75, 0xcc, 0xc2, 0xbd,
  0x37, 0x28, 0x4f, 0xbe, 0x47, 0xcd, 0xd7, 0xbd, 0x5a, 0x52, 0x97, 0xbd,
  0xd8, 0xf2, 0x8d, 0x3e, 0x27, 0x70, 0x28, 0x3a, 0x13, 0x25, 0xef, 0x3c,
  0xe6, 0x24, 0x19, 0xbd, 0x5c, 0x24, 0x9a, 0x3d, 0xd3, 0xc2, 0x23, 0xbe,
  0xd9, 0x7b, 0x99, 0xbd, 0x9a, 0x87, 0xae, 0xbd, 0x99, 0xda, 0xe7, 0x3d,
  0x62, 0x39, 0xef, 0xbd, 0x5f, 0x1f, 0x48, 0x3c, 0x3a, 0xd6, 0xb3, 0xbd,
  0xef, 0x6e, 0xb0, 0xbc, 0xe1, 0xcc, 0xc0, 0xbe, 0xaa, 0xae, 0xdc, 0xbe,
  0xf2, 0x59, 0x36, 0xbe, 0x57, 0x58, 0x93, 0x3d, 0xdf, 0x3e, 0xd4, 0xbe,
  0xba, 0x72, 0xe4, 0xbe, 0x5a, 0xad, 0x88, 0xbd, 0x76, 0xc9, 0x3f, 0x3e,
  0x17, 0x72, 0x82, 0x3e, 0xd5, 0xe6, 0xb0, 0x3e, 0x87, 0xc7, 0x69, 0xbe,
  0xe3, 0x44, 0x76, 0x3e, 0x27, 0x37, 0x6e, 0xbf, 0x5e, 0xc9, 0x0a, 0xbf,
  0xcd, 0x10, 0xcd, 0xbe, 0x43, 0x53, 0xae, 0xbe, 0x7d, 0xb5, 0x59, 0x3e,
  0x3d, 0xbb, 0x59, 0x3e, 0x32, 0x10, 0x53, 0xbe, 0xd7, 0x0f, 0x01, 0xbe,
  0xd2, 0x44, 0xf0, 0x3c, 0x94, 0x12, 0x04, 0xbd, 0xd2, 0x84, 0xb0, 0xbe,
  0x00, 0x68, 0x8b, 0xbe, 0xaf, 0x15, 0x58, 0x3e, 0x05, 0xf5, 0x51, 0x3e,
  0xff, 0xde, 0x46, 0xbc, 0x1f, 0x97, 0x49, 0xbd, 0x0c, 0x8c, 0x55, 0x3e,
  0x0f, 0x4a, 0xc8, 0x3d, 0xf2, 0xfa, 0x18, 0xbe, 0xd4, 0x87, 0xf0, 0x3d,
  0x4c, 0x00, 0x16, 0xbe, 0x48, 0xcf, 0x7a, 0xbd, 0x3d, 0x6f, 0xa6, 0xbd,
  0xa8, 0xbe, 0x0b, 0xbe, 0x41, 0x2a, 0x4a, 0xbe, 0x0d, 0x93, 0x01, 0xbe,
  0xcd, 0x2e, 0x16, 0xbe, 0xe9, 0x40, 0x10, 0xbe, 0x65, 0xa2, 0x18, 0x3d,
  0xca, 0xf3, 0xc7, 0x3e, 0xf9, 0x70, 0xc9, 0xbd, 0x1c, 0x6d, 0x4e, 0xbd,
  0xac, 0x0c, 0xe4, 0xbd, 0x80, 0xb7, 0xd1, 0xbd, 0xe2, 0xf5, 0x96, 0xbd,
  0xf8, 0x07, 0xee, 0xbe, 0x67, 0x0b, 0x59, 0x3e, 0x31, 0x5b, 0xf0, 0x3c,
  0x12, 0xe9, 0x8e, 0xbc, 0xc9, 0x35, 0x52, 0xbe, 0xa4, 0x2b, 0x2b, 0xbd,
  0x9c, 0x99, 0x98, 0xbd, 0x13, 0xcf, 0xe3, 0xba, 0x65, 0x2b, 0x25, 0x3d,
  0xcc, 0x09, 0xd0, 0x3e, 0x06, 0xc6, 0x00, 0xbe, 0x66, 0x5c, 0x28, 0x3e,
  0xba, 0xca, 0x85, 0xbe, 0xd0, 0xbd, 0x08, 0x3f, 0x72, 0x27, 0xdf, 0x3d,
  0x96, 0xc8, 0xe7, 0x3d, 0x81, 0xeb, 0xf5, 0xbe, 0x9d, 0x7d, 0x71, 0xbe,
  0xf4, 0xff, 0xcb, 0xbe, 0xb1, 0xc8, 0xd4, 0xbd, 0x20, 0xbb, 0xc3, 0x3b,
  0x6e, 0x99, 0x13, 0x3c, 0xa4, 0xcc, 0x5c, 0xbe, 0x77, 0xca, 0x89, 0xbd,
  0x35, 0x94, 0x04, 0xbe, 0x86, 0xfd, 0x81, 0xbe, 0x22, 0x88, 0xb9, 0xbe,
  0x4e, 0xfb, 0x1b, 0xbd, 0x5d, 0x49, 0x0c, 0x3e, 0x87, 0xe2, 0xa9, 0xbe,
  0x04, 0x1b, 0xc1, 0xbe, 0xec, 0xdd, 0x72, 0x39, 0x6d, 0x47, 0x30, 0x3f,
  0xcb, 0xc5, 0x3d, 0xbe, 0xb8, 0x69, 0x2e, 0x3e, 0x31, 0x17, 0xdb, 0xbd,
  0x77, 0xab, 0x09, 0x3e, 0xba, 0xd4, 0xb6, 0xbd, 0xd3, 0xe8, 0x3f, 0xbe,
  0xd1, 0x18, 0x87, 0xbd, 0x93, 0x25, 0xf7, 0x3b, 0x57, 0x61, 0x2d, 0xbd,
  0xad, 0x60, 0xac, 0x3c, 0xf4, 0xbf, 0x34, 0xbe, 0xd5, 0x67, 0x86, 0xbd,
  0x3c, 0x03, 0x7e, 0x3e, 0x35, 0x39, 0xee, 0xbd, 0xb4, 0x95, 0x38, 0xbe,
  0xd6, 0x69, 0x2a, 0x3e, 0xa9, 0x63, 0xe6, 0x3c, 0x45, 0xf6, 0x8f, 0xbd,
  0x82, 0x36, 0x3c, 0xbe, 0x7b, 0x9d, 0x64, 0xbe, 0xec, 0x71, 0x2d, 0xbf,
  0xd4, 0x14, 0xc0, 0xbe, 0x9f, 0xcb, 0x32, 0xbe, 0x0b, 0x2d, 0xac, 0xbd,
  0x98, 0xdd, 0xd3, 0x3e, 0xb9, 0x5b, 0x53, 0x3d, 0xdb, 0xc4, 0x72, 0xbe,
  0x3e, 0xa1, 0x0f, 0x3f, 0x5b, 0xfa, 0x48, 0xbe, 0xe3, 0xa6, 0x7d, 0xbe,
  0x1d, 0x62, 0xcb, 0xbe, 0xc9, 0x04, 0xab, 0xbe, 0xc7, 0x5b, 0x92, 0x3e,
  0xb3, 0xb8, 0xb1, 0x3d, 0xd6, 0xec, 0x05, 0xbe, 0x2b, 0xa7, 0xbc, 0xbd,
  0x11, 0xc0, 0x98, 0x3c, 0x99, 0x6d, 0xbd, 0xbc, 0xa3, 0x81, 0x23, 0xbe,
  0x84, 0xf2, 0xf0, 0xbd, 0xc1, 0x9a, 0x72, 0xbe, 0xaf, 0xb4, 0x0c, 0xbf,
  0xf3, 0x6a, 0x11, 0xbd, 0x1e, 0x9c, 0x5e, 0xbd, 0xf4, 0x58, 0x3b, 0x3e,
  0x21, 0x83, 0x21, 0xbd, 0xe4, 0x7b, 0xd1, 0xbd, 0x6e, 0x2c, 0x09, 0xbf,
  0xe9, 0x27, 0x89, 0xbe, 0xa0, 0x25, 0x09, 0xbe, 0xb2, 0xcf, 0x1e, 0xbe,
  0x98, 0x6e, 0x7e, 0xbe, 0x1f, 0xa1, 0x85, 0xbe, 0xa2, 0x4c, 0x13, 0xbf,
  0xbe, 0x8f, 0x81, 0xbe, 0x6a, 0x01, 0xe8, 0x3c, 0x33, 0xc2, 0x9c, 0x3d,
  0xd9, 0x0c, 0xe6, 0x3d, 0x58, 0x1c, 0xa9, 0xbc, 0x57, 0x40, 0x43, 0xbe,
  0x93, 0xc3, 0x25, 0x3e, 0x3e, 0x3e, 0x08, 0x3d, 0x03, 0x5c, 0x7d, 0x3e,
  0xe4, 0x63, 0xcf, 0x3e, 0xe8, 0xff, 0x82, 0xbd, 0xa9, 0x28, 0x1d, 0x3e,
  0x63, 0x50, 0x10, 0xbe, 0x51, 0x3f, 0xba, 0xbd, 0x9c, 0xf7, 0xb6, 0xbe,
  0x45, 0x85, 0x8d, 0x3c, 0x89, 0x7f, 0xe3, 0xbc, 0x3f, 0x33, 0x10, 0x3e,
  0x5c, 0x86, 0x06, 0xbe, 0x02, 0x2b, 0x9a, 0xbe, 0x89, 0xdb, 0xc8, 0xbd,
  0x8d, 0x1d, 0x5b, 0x3c, 0xf9, 0xf9, 0xbf, 0xbe, 0xb3, 0x98, 0x0f, 0xbe,
  0xa9, 0x9c, 0x31, 0xbe, 0x67, 0x31, 0x03, 0xbe, 0xe9, 0x5b, 0xb2, 0x3e,
  0x3b, 0x47, 0xee, 0x3d, 0xd6, 0x63, 0x09, 0xbd, 0xb9, 0xdf, 0x94, 0xbe,
  0xfa, 0xe2, 0x3c, 0x3d, 0x3a, 0x9f, 0xae, 0xbd, 0xec, 0xd0, 0x13, 0xbd,
  0x42, 0xd8, 0x53, 0x3d, 0x17, 0x17, 0x8b, 0x3e, 0x55, 0x3e, 0x8f, 0xbd,
  0x90, 0x3b, 0x6d, 0x3d, 0xc9, 0xa3, 0xd8, 0xbd, 0x24, 0xe6, 0x1e, 0xbd,
  0xe7, 0x33, 0x2a, 0xbd, 0xbf, 0x79, 0xad, 0x3e, 0x28, 0x09, 0x2c, 0x3e,
  0xbc, 0x73, 0xb9, 0xbc, 0x86, 0xfa, 0xc1, 0x3c, 0x88, 0x21, 0xfa, 0xbc,
  0x53, 0xbf, 0xf5, 0xbd, 0x4b, 0x22, 0xa3, 0xbe, 0xe4, 0x15, 0xb2, 0x3d,
  0xf9, 0xee, 0x16, 0xbe, 0x65, 0xb6, 0xb1, 0x3d, 0xef, 0x8b, 0xd8, 0xbe,
  0x52, 0x78, 0x86, 0xbc, 0x82, 0xba, 0xeb, 0xbd, 0x5b, 0x78, 0x2b, 0xbe,
  0xbe, 0x8f, 0xcf, 0xbe, 0x98, 0xf9, 0x36, 0x3c, 0x57, 0x62, 0x6b, 0xbe,
  0x90, 0x31, 0x94, 0xbe, 0x1b, 0x2d, 0x9d, 0xbe, 0x7a, 0xcf, 0x77, 0xbe,
  0x7e, 0xbe, 0x83, 0x3c, 0x22, 0xb6, 0x0f, 0xbe, 0x66, 0xb5, 0x42, 0xbe,
  0xa6, 0xff, 0x44, 0xbd, 0x70, 0xca, 0xfa, 0xbd, 0x1c, 0x6d, 0x37, 0xbe,
  0x96, 0x3f, 0xb1, 0x3d, 0x66, 0xd5, 0x17, 0xbd, 0xe6, 0x1f, 0x8f, 0x3d,
  0xbe, 0xd6, 0x54, 0xbe, 0xa5, 0x9a, 0x14, 0xbd, 0x65, 0xa3, 0xee, 0xbb,
  0x21, 0xb7, 0x94, 0x3d, 0xd9, 0xb7, 0x8f, 0x3e, 0x92, 0xdb, 0x04, 0x3e,
  0x99, 0x11, 0xfe, 0xbc, 0x07, 0xf0, 0xec, 0x3d, 0xc0, 0x9e, 0xf5, 0xbd,
  0x9d, 0x02, 0xce, 0xbc, 0x45, 0x19, 0x96, 0x3a, 0x43, 0xbb, 0x7c, 0x3e,
  0x80, 0xc1, 0x57, 0x3e, 0x71, 0xbc, 0x9f, 0xbd, 0x3c, 0x92, 0xf0, 0x3c,
  0xe6, 0x62, 0x37, 0x3e, 0x5a, 0xdf, 0x77, 0xbe, 0xdd, 0x0b, 0x16, 0xbe,
  0x0a, 0x8c, 0x1c, 0x3e, 0x8a, 0xff, 0x5e, 0xbc, 0xcb, 0xf2, 0x17, 0xbd,
  0xae, 0x41, 0x88, 0xbe, 0xc7, 0xdc, 0x86, 0xbe, 0xf9, 0xcf, 0x86, 0x3c,
  0x94, 0xc7, 0xaa, 0xbd, 0x0b, 0x91, 0xf4, 0x3d, 0xa4, 0x81, 0x02, 0xbe,
  0xb1, 0x62, 0x51, 0x3e, 0x23, 0xdc, 0xd5, 0xbc, 0xa9, 0x63, 0x91, 0xbb,
  0x7f, 0xd2, 0x4c, 0xbe, 0xd5, 0xe8, 0x6d, 0x3e, 0xe9, 0xb9, 0x94, 0xbd,
  0xa2, 0xf4, 0xa9, 0x3d, 0x7d, 0x09, 0x78, 0xbd, 0x41, 0xfd, 0x19, 0xbe,
  0x1b, 0xdd, 0xe5, 0xbd, 0x88, 0x90, 0x09, 0xbe, 0x38, 0xe9, 0xc8, 0x3c,
  0x57, 0x04, 0xbf, 0xbe, 0xce, 0x79, 0x40, 0x3c, 0x81, 0x0b, 0x7f, 0xbd,
  0x48, 0xcb, 0x41, 0xbe, 0x2b, 0xac, 0x89, 0xbe, 0xc9, 0xac, 0x03, 0xbd,
  0x46, 0xca, 0x69, 0xbe, 0xd4, 0xb2, 0x8c, 0x3d, 0x71, 0x21, 0xfa, 0xbc,
  0x66, 0x52, 0x22, 0x3d, 0x7c, 0xcd, 0x60, 0xbd, 0x4b, 0xec, 0x07, 0xbe,
  0x2d, 0xa3, 0xfe, 0x3d, 0x26, 0xde, 0xff, 0xff, 0x10, 0x00, 0x00, 0x00,
  0x0a, 0x00, 0x00, 0x00, 0x1c, 0x00, 0x00, 0x00, 0x38, 0x00, 0x00, 0x00,
  0x04, 0x00, 0x00, 0x00, 0x10, 0x00, 0x00, 0x00, 0x04, 0x00, 0x00, 0x00,
  0x01, 0x00, 0x00, 0x00, 0x08, 0x00, 0x00, 0x00, 0x1a, 0x00, 0x00, 0x00,
  0x73, 0x65, 0x71, 0x75, 0x65, 0x6e, 0x74, 0x69, 0x61, 0x6c, 0x2f, 0x63,
  0x6f, 0x6e, 0x76, 0x32, 0x64, 0x5f, 0x31, 0x2f, 0x43, 0x6f, 0x6e, 0x76,
  0x32, 0x44, 0x00, 0x00, 0x9c, 0xdd, 0xff, 0xff, 0xa6, 0xde, 0xff, 0xff,
  0x04, 0x00, 0x00, 0x00, 0x80, 0x01, 0x00, 0x00, 0x83, 0xdf, 0xea, 0xbd,
  0xa5, 0xbb, 0xfd, 0xbe, 0x6b, 0x8d, 0x88, 0xbb, 0xc5, 0x7e, 0x1b, 0xbe,
  0x7c, 0xea, 0x90, 0xbd, 0x37, 0xd5, 0x20, 0xbe, 0x23, 0xa4, 0x8a, 0x3e,
  0x0c, 0x5b, 0xee, 0x3e, 0x33, 0x47, 0x37, 0x3e, 0x33, 0x00, 0xa1, 0x3d,
  0xc5, 0xd8, 0x03, 0x3e, 0x3f, 0x7e, 0x96, 0x3c, 0xae, 0x26, 0xd1, 0x3d,
  0x15, 0x14, 0x21, 0x3c, 0xf8, 0x29, 0x7a, 0xbd, 0xb3, 0x5e, 0x04, 0x3f,
  0x15, 0xdc, 0xb5, 0x3c, 0x58, 0x7a, 0x91, 0xbd, 0x74, 0x21, 0x59, 0xbe,
  0xa3, 0x56, 0x55, 0x3e, 0xc2, 0x39, 0x70, 0x3e, 0xd0, 0xd9, 0xce, 0xbe,
  0x25, 0xe6, 0x68, 0xbe, 0x15, 0x5f, 0xcc, 0xbd, 0x88, 0x68, 0x01, 0xbd,
  0x2e, 0x9f, 0xdf, 0x3c, 0xdd, 0x7a, 0xce, 0x3b, 0x90, 0x82, 0x88, 0xbd,
  0x6c, 0x9a, 0x03, 0x3e, 0xed, 0x64, 0x86, 0x3e, 0xbd, 0x44, 0xd4, 0x3e,
  0x04, 0x1e, 0xaa, 0x3d, 0xbc, 0xa7, 0x3a, 0x3e, 0xd6, 0x57, 0x68, 0xbe,
  0x47, 0xd8, 0x67, 0xbe, 0x76, 0x40, 0xe8, 0xbe, 0xff, 0x9c, 0xb2, 0xbd,
  0x2f, 0x48, 0xa9, 0x3c, 0x2e, 0x7e, 0x04, 0x3e, 0x82, 0xbe, 0x90, 0xbd,
  0xf9, 0xc6, 0x91, 0x3d, 0xaf, 0x36, 0x6d, 0xbc, 0x0c, 0x02, 0x14, 0xbd,
  0xa1, 0xc2, 0x42, 0x3d, 0xf7, 0x6f, 0xa5, 0xbc, 0xa0, 0xf4, 0xf9, 0xbc,
  0x55, 0xce, 0x03, 0x3e, 0x13, 0x64, 0xb3, 0xbc, 0x7d, 0xfc, 0x2a, 0x3e,
  0x29, 0x68, 0x17, 0xbe, 0x4e, 0x5a, 0x09, 0xbe, 0x00, 0x3a, 0xcb, 0xbe,
  0x56, 0x13, 0x16, 0x3c, 0x82, 0xe4, 0x97, 0xbe, 0xfa, 0x40, 0xe0, 0x3e,
  0x57, 0xe5, 0x6a, 0x3d, 0xc6, 0x36, 0x83, 0x3e, 0x71, 0x2e, 0x03, 0x3e,
  0x8b, 0x05, 0x59, 0x3e, 0xf1, 0x01, 0xc9, 0x3d, 0xa6, 0xa6, 0x05, 0x3e,
  0x49, 0xde, 0x0d, 0x3e, 0x9f, 0x9a, 0x9d, 0x3e, 0xc6, 0x78, 0xe0, 0xbd,
  0x8b, 0x35, 0x37, 0x3d, 0x38, 0x25, 0x0e, 0x3e, 0xd0, 0x07, 0xff, 0x3d,
  0x46, 0x08, 0xca, 0xbd, 0x79, 0x61, 0x8b, 0xbe, 0xe0, 0xd3, 0xf5, 0xbc,
  0xa7, 0xce, 0x12, 0xbe, 0x65, 0x04, 0x71, 0xbe, 0x64, 0x3c, 0xf3, 0xbd,
  0x2a, 0xed, 0xce, 0xbd, 0x82, 0x08, 0x9b, 0x3e, 0x7a, 0x4d, 0x53, 0x3c,
  0xd5, 0xa4, 0x8f, 0xbd, 0xdd, 0xf2, 0x09, 0x3b, 0x67, 0x6b, 0x86, 0xbd,
  0xb6, 0x59, 0xb6, 0x3c, 0xad, 0xb7, 0x24, 0x3d, 0x68, 0x62, 0x4a, 0xbd,
  0x7d, 0xb3, 0x43, 0x3c, 0x09, 0x88, 0x3e, 0x3d, 0x87, 0x37, 0xe2, 0x3b,
  0xb4, 0x9c, 0x0b, 0x3e, 0x5e, 0xaa, 0x66, 0xbe, 0xa7, 0x57, 0xac, 0xbd,
  0xe6, 0xf7, 0xfd, 0x3d, 0xe3, 0xbe, 0x24, 0xbe, 0xa8, 0x76, 0x55, 0xbc,
  0x5a, 0x9d, 0x86, 0xbd, 0xa6, 0xec, 0x11, 0xbd, 0x32, 0x9e, 0x03, 0x3e,
  0xb8, 0x04, 0x17, 0xbe, 0xf4, 0x8f, 0xfa, 0x3d, 0xfe, 0xdf, 0xff, 0xff,
  0x10, 0x00, 0x00, 0x00, 0x09, 0x00, 0x00, 0x00, 0x1c, 0x00, 0x00, 0x00,
  0x38, 0x00, 0x00, 0x00, 0x04, 0x00, 0x00, 0x00, 0x08, 0x00, 0x00, 0x00,
  0x04, 0x00, 0x00, 0x00, 0x03, 0x00, 0x00, 0x00, 0x01, 0x00, 0x00, 0x00,
  0x18, 0x00, 0x00, 0x00, 0x73, 0x65, 0x71, 0x75, 0x65, 0x6e, 0x74, 0x69,
  0x61, 0x6c, 0x2f, 0x63, 0x6f, 0x6e, 0x76, 0x32, 0x64, 0x2f, 0x43, 0x6f,
  0x6e, 0x76, 0x32, 0x44, 0x00, 0x00, 0x00, 0x00, 0x74, 0xdf, 0xff, 0xff,
  0x7e, 0xe0, 0xff, 0xff, 0x04, 0x00, 0x00, 0x00, 0xc0, 0x00, 0x00, 0x00,
  0x1e, 0x7e, 0x43, 0xbd, 0xee, 0x3e, 0x11, 0x3e, 0x36, 0xd3, 0x83, 0xbd,
  0x93, 0xca, 0x46, 0x3d, 0x3b, 0x10, 0xcf, 0xbe, 0x89, 0xee, 0x0a, 0xbe,
  0x39, 0x78, 0x5e, 0x3e, 0xe2, 0xaa, 0x97, 0xbe, 0x1c, 0x08, 0xb3, 0xbd,
  0xc7, 0xd0, 0x92, 0x3f, 0x14, 0xc1, 0x93, 0x3e, 0x68, 0xcd, 0xa6, 0xbc,
  0xd0, 0x8e, 0x5c, 0x3c, 0xf0, 0x17, 0x43, 0x3e, 0x5e, 0x15, 0xf9, 0x3d,
  0x45, 0x29, 0xa4, 0x3d, 0xaf, 0x72, 0xf8, 0xbc, 0xe0, 0x2e, 0x25, 0x3e,
  0xbd, 0x89, 0xc3, 0xbb, 0x5b, 0x6b, 0x57, 0x3d, 0x3e, 0xba, 0xda, 0xbe,
  0xb2, 0x29, 0xa3, 0x3e, 0x47, 0xdc, 0x27, 0x3e, 0xbb, 0xf6, 0xa8, 0xbe,
  0xb8, 0x19, 0x64, 0xbd, 0x9a, 0x30, 0x81, 0xbf, 0x3a, 0x6e, 0x9a, 0x3e,
  0x4a, 0x7e, 0x45, 0x3d, 0x37, 0x8c, 0x66, 0x3d, 0xd5, 0x02, 0x9f, 0x3e,
  0x00, 0x9e, 0x48, 0x3e, 0xb2, 0x8f, 0xbe, 0x3c, 0xdf, 0xbc, 0xc9, 0xba,
  0xf3, 0x7a, 0x1c, 0x3d, 0x86, 0xca, 0x04, 0x3d, 0x91, 0x04, 0xbd, 0x3d,
  0x72, 0x44, 0xec, 0xbe, 0x0b, 0x5d, 0x05, 0x3e, 0x1d, 0x2e, 0x11, 0x3e,
  0xac, 0xe3, 0xb1, 0xbe, 0x90, 0x32, 0x8e, 0xbc, 0x12, 0xd5, 0xb5, 0xbf,
  0x85, 0x96, 0x42, 0x3e, 0x9a, 0xe2, 0xb5, 0xbd, 0xc3, 0x28, 0x51, 0x3b,
  0xcd, 0xfb, 0x77, 0x3e, 0xfc, 0xc4, 0x20, 0x3e, 0x2b, 0x53, 0x12, 0x3c,
  0x16, 0xe1, 0xff, 0xff, 0x10, 0x00, 0x00, 0x00, 0x08, 0x00, 0x00, 0x00,
  0x14, 0x00, 0x00, 0x00, 0x30, 0x00, 0x00, 0x00, 0x02, 0x00, 0x00, 0x00,
  0x03, 0x00, 0x00, 0x00, 0x10, 0x00, 0x00, 0x00, 0x19, 0x00, 0x00, 0x00,
  0x73, 0x65, 0x71, 0x75, 0x65, 0x6e, 0x74, 0x69, 0x61, 0x6c, 0x2f, 0x64,
  0x65, 0x6e, 0x73, 0x65, 0x5f, 0x31, 0x2f, 0x4d, 0x61, 0x74, 0x4d, 0x75,
  0x6c, 0x00, 0x00, 0x00, 0x84, 0xe0, 0xff, 0xff, 0x8e, 0xe1, 0xff, 0xff,
  0x04, 0x00, 0x00, 0x00, 0x00, 0x1c, 0x00, 0x00, 0x19, 0x27, 0xce, 0x3d,
  0x7e, 0x53, 0x01, 0x3f, 0x48, 0x07, 0x71, 0xbd, 0xe0, 0x41, 0x31, 0xbe,
  0x48, 0x2e, 0x94, 0x3e, 0x97, 0xb7, 0x16, 0x3d, 0x56, 0xa6, 0x29, 0xbe,
  0xb9, 0xad, 0x8d, 0xbe, 0x62, 0xf1, 0xe6, 0x3c, 0x4f, 0x0b, 0x03, 0xbe,
  0x48, 0x6f, 0x5a, 0xbd, 0xd1, 0xb3, 0x81, 0xbe, 0xc4, 0x65, 0xa4, 0x3d,
  0x74, 0x8a, 0x8e, 0xbe, 0x2c, 0xe8, 0x1d, 0x3b, 0xe9, 0x1f, 0xdd, 0x3e,
  0xf2, 0x69, 0x89, 0x3d, 0x5e, 0x67, 0x08, 0xbe, 0x67, 0x04, 0xab, 0xbe,
  0x3b, 0x3c, 0xec, 0x3b, 0xdb, 0x77, 0xb0, 0x3e, 0x72, 0x78, 0x8a, 0x3d,
  0x7d, 0x35, 0xaf, 0xbe, 0x5d, 0xe1, 0x01, 0xbf, 0x5e, 0xaf, 0x8b, 0xbe,
  0x04, 0x57, 0x33, 0x3e, 0xf6, 0xde, 0xd8, 0xbd, 0x07, 0xda, 0x7d, 0xbd,
  0xdf, 0x77, 0x18, 0x3e, 0x2e, 0xdb, 0x07, 0x3e, 0xca, 0x9b, 0x5d, 0x3c,
  0x79, 0x25, 0xd8, 0x3e, 0x29, 0xb8, 0x19, 0x3c, 0x81, 0x4c, 0xca, 0xbc,
  0x49, 0xe1, 0x25, 0xbe, 0x44, 0xc0, 0x2e, 0x3e, 0x04, 0x39, 0x60, 0x3e,
  0x9f, 0x50, 0x6c, 0x3e, 0x72, 0x33, 0x6f, 0xbe, 0x03, 0xce, 0x8c, 0xbe,
  0x52, 0xf2, 0xd1, 0x3d, 0xe2, 0x5c, 0xca, 0x3c, 0x10, 0x9f, 0x1b, 0xbe,
  0xb7, 0xc5, 0x07, 0x3e, 0x3e, 0x22, 0x83, 0x3e, 0x82, 0x3e, 0x7d, 0x3e,
  0xea, 0x78, 0x36, 0x3d, 0x0c, 0xc5, 0x73, 0x3e, 0xcc, 0xbe, 0xde, 0x3c,
  0x0a, 0x69, 0x1b, 0x3c, 0xab, 0x04, 0x6b, 0x3e, 0xd5, 0x1f, 0x08, 0xba,
  0xe4, 0x79, 0xbf, 0x3e, 0x81, 0x1e, 0x6c, 0x3d, 0x94, 0x96, 0x6c, 0xbe,
  0xdf, 0x92, 0x96, 0xbe, 0xab, 0xbb, 0x2f, 0x3e, 0xa0, 0x13, 0x64, 0x3e,
  0x4d, 0xb9, 0x82, 0xbe, 0xd0, 0x68, 0x07, 0x3d, 0x4e, 0xe3, 0xf5, 0xbd,
  0x21, 0x58, 0xa1, 0x3e, 0x6b, 0x3d, 0x52, 0x3d, 0x88, 0x55, 0x19, 0x3f,
  0x87, 0x9c, 0x5e, 0x3c, 0xd2, 0x70, 0xe3, 0x3c, 0x24, 0xfd, 0xf9, 0xbd,
  0x77, 0xec, 0x9c, 0x3d, 0xa7, 0x81, 0xc4, 0x3e, 0xb4, 0x72, 0x84, 0x3e,
  0xf0, 0xf5, 0xf2, 0xbd, 0x3d, 0xda, 0x1e, 0xbe, 0x6c, 0x5d, 0xc2, 0xbd,
  0x30, 0xfa, 0x28, 0x3e, 0x2e, 0x1e, 0x73, 0x3d, 0xb2, 0x34, 0x95, 0x3d,
  0x3e, 0xc9, 0x15, 0x3e, 0xcb, 0x0b, 0x44, 0x3e, 0x29, 0x2d, 0xc9, 0x3d,
  0xe9, 0x5f, 0x22, 0x3f, 0x45, 0xb8, 0x2e, 0xbd, 0x5a, 0xdc, 0x13, 0x3b,
  0x59, 0xc0, 0x87, 0xbe, 0xaa, 0x41, 0x44, 0xbd, 0x16, 0xbc, 0x7e, 0x3e,
  0x27, 0xac, 0x07, 0x3e, 0x6b, 0x59, 0xe8, 0xbe, 0x74, 0xaa, 0xf6, 0xbe,
  0x08, 0x6f, 0x3a, 0xbe, 0xd8, 0xbf, 0x13, 0xbf, 0x48, 0x87, 0xe8, 0xbd,
  0x49, 0x67, 0xd2, 0x3d, 0xfd, 0x30, 0x81, 0xbd, 0xab, 0x1e, 0x04, 0x3e,
  0xd9, 0xc8, 0x3b, 0x3d, 0x8e, 0xfb, 0xf7, 0x3e, 0x8c, 0x5e, 0xd6, 0x3d,
  0xe5, 0x25, 0x9a, 0x3e, 0xd6, 0xe1, 0x10, 0xbe, 0x36, 0xb7, 0x1d, 0xbf,
  0xb7, 0x61, 0xe8, 0x3e, 0x80, 0x77, 0x98, 0xbc, 0xf3, 0x60, 0x37, 0xbf,
  0x88, 0xb5, 0xd6, 0xbe, 0x3e, 0x8c, 0x8b, 0xbe, 0xce, 0x9d, 0xb4, 0xbe,
  0x90, 0x8d, 0x12, 0x3e, 0x28, 0x9f, 0x55, 0x3e, 0x8f, 0xed, 0x31, 0x3e,
  0x3c, 0xe2, 0x10, 0x3d, 0xdd, 0xc5, 0x40, 0xbd, 0x09, 0xc5, 0x37, 0x3f,
  0xa0, 0x45, 0xf4, 0xbd, 0x50, 0x0b, 0xd8, 0xbd, 0x30, 0xf2, 0x01, 0x3c,
  0x07, 0x10, 0xfc, 0x3d, 0x7c, 0x1d, 0xc6, 0xbe, 0x04, 0x40, 0x41, 0xbe,
  0xb2, 0x13, 0xbe, 0xba, 0x74, 0x37, 0x1a, 0x3e, 0xb3, 0xc6, 0xca, 0x3c,
  0x08, 0x93, 0xb5, 0x3d, 0x6b, 0xa6, 0x50, 0x3e, 0x35, 0xbb, 0x2b, 0x3e,
  0xa6, 0x6a, 0xd5, 0xbd, 0x0c, 0x2f, 0xa2, 0x3d, 0xd2, 0xa1, 0x7a, 0x3c,
  0x39, 0xf7, 0xb3, 0xbd, 0x57, 0x85, 0x45, 0xbd, 0x30, 0x1d, 0x64, 0xbd,
  0xe6, 0xd1, 0x55, 0x3e, 0x18, 0x90, 0x66, 0xbe, 0x4a, 0x14, 0xd2, 0xbe,
  0x1b, 0xce, 0xb2, 0xbd, 0xa3, 0xc6, 0x2c, 0x3d, 0x29, 0x77, 0x6f, 0xbd,
  0x6b, 0xcb, 0x87, 0xbd, 0xf2, 0xa4, 0xcc, 0xbd, 0x26, 0x32, 0x1e, 0xbe,
  0x37, 0x1c, 0x72, 0x3b, 0x0c, 0xa8, 0x90, 0x3e, 0x57, 0x95, 0x5c, 0x3c,
  0xe5, 0x9b, 0xa5, 0xbc, 0x7a, 0xfb, 0xc6, 0xbb, 0xf5, 0x51, 0xa4, 0x3c,
  0xab, 0x13, 0xa8, 0x3c, 0x63, 0x86, 0x86, 0xbd, 0xda, 0x89, 0x90, 0xbe,
  0x58, 0x22, 0x00, 0xbc, 0xf5, 0x24, 0xb5, 0xbc, 0x64, 0x83, 0x75, 0xbe,
  0x4f, 0x79, 0xaf, 0xbd, 0xb6, 0x28, 0x53, 0xbe, 0x90, 0xd2, 0x8c, 0xbd,
  0xdb, 0x00, 0x64, 0xbe, 0x24, 0x9e, 0xdb, 0xbd, 0xed, 0xae, 0x9f, 0x3d,
  0xf9, 0x03, 0x70, 0xbd, 0x52, 0x99, 0xc5, 0x3c, 0x26, 0x31, 0x09, 0xbe,
  0xd1, 0x03, 0x25, 0xbd, 0xcc, 0xae, 0x13, 0xbe, 0x62, 0x36, 0xa5, 0xbe,
  0x41, 0x3f, 0x8b, 0xbe, 0x2c, 0x3a, 0x8d, 0xbe, 0xdf, 0x05, 0xa7, 0xbd,
  0xf1, 0x44, 0xe0, 0xbd, 0x4a, 0x25, 0x87, 0xbd, 0x31, 0x78, 0x8c, 0xbd,
  0x96, 0x10, 0x7a, 0xbe, 0x0b, 0x2e, 0x1d, 0xbe, 0x88, 0x8b, 0x3d, 0x3d,
  0x13, 0xeb, 0x47, 0xbe, 0xaa, 0x6a, 0x46, 0xbe, 0xbb, 0xf9, 0xdc, 0xbb,
  0x6e, 0x22, 0xae, 0xbe, 0x35, 0x09, 0x46, 0xbd, 0x3e, 0xf3, 0x37, 0xbd,
  0x2e, 0xf7, 0x3a, 0xbe, 0xda, 0x5d, 0x25, 0x3d, 0x9e, 0x29, 0x48, 0xbe,
  0x27, 0xf7, 0xb6, 0xbe, 0x96, 0xb5, 0x01, 0x3e, 0x17, 0x9a, 0x35, 0xbd,
  0x18, 0xe2, 0x3d, 0xbd, 0x5f, 0xd9, 0x98, 0x3d, 0xae, 0x74, 0xba, 0x3d,
  0x5a, 0xa8, 0x86, 0xbd, 0xf1, 0x9e, 0x31, 0x3e, 0x90, 0x2f, 0x4d, 0xbe,
  0x61, 0xef, 0x57, 0x3d, 0xae, 0x65, 0x8e, 0xbc, 0xfd, 0xb7, 0x6b, 0x3c,
  0x0f, 0x36, 0xf7, 0xbd, 0x32, 0x74, 0xcc, 0x3d, 0x30, 0x10, 0x66, 0xbe,
  0x1d, 0x9d, 0xee, 0xbd, 0x08, 0x7f, 0x22, 0x3e, 0x2f, 0x44, 0x2c, 0xbe,
  0xc1, 0xb6, 0xe5, 0xbd, 0x86, 0x4f, 0x12, 0xbe, 0x2f, 0x16, 0x4d, 0xbe,
  0x49, 0x9b, 0xb6, 0x3c, 0x32, 0x36, 0xf4, 0x3d, 0x04, 0x2a, 0xe4, 0x3c,
  0x8d, 0xad, 0x52, 0xbe, 0xbc, 0xf3, 0x46, 0xbb, 0x95, 0x01, 0x6b, 0xbe,
  0xed, 0xb8, 0x84, 0x3c, 0xa9, 0xd2, 0x00, 0xbe, 0xe6, 0xb4, 0x02, 0x3e,
  0x3c, 0x6e, 0x0c, 0xbd, 0xb8, 0x3a, 0xd2, 0x3c, 0xc7, 0x3f, 0x44, 0x3e,
  0x67, 0xef, 0xbf, 0x3d, 0x37, 0x8a, 0xf9, 0xbd, 0x4e, 0x3a, 0x52, 0x3b,
  0x6d, 0xd7, 0xa1, 0xbc, 0x7a, 0x3b, 0xa8, 0x3e, 0xb5, 0x34, 0x88, 0xbd,
  0x7d, 0xc4, 0x44, 0x3e, 0x1c, 0x10, 0xff, 0xbd, 0xf1, 0xf0, 0xe3, 0xba,
  0x71, 0x21, 0x5c, 0xbe, 0x95, 0xc5, 0x10, 0x3e, 0x1b, 0x9d, 0x80, 0x3e,
  0x7f, 0x4d, 0xcb, 0xbe, 0xb9, 0x68, 0x91, 0xbe, 0xce, 0x59, 0xd1, 0x3e,
  0x02, 0xdd, 0xf0, 0x3e, 0xfb, 0xcc, 0x6c, 0x3c, 0xe4, 0xaa, 0x96, 0xbd,
  0x5c, 0x68, 0x00, 0xbe, 0x67, 0x86, 0xfd, 0xbd, 0x43, 0x06, 0xc2, 0xbc,
  0x49, 0x0e, 0xbf, 0xbe, 0x0f, 0xdb, 0x2d, 0xbe, 0x04, 0xcd, 0x26, 0xbf,
  0xd7, 0xe1, 0x8e, 0xbe, 0x4b, 0x68, 0x16, 0x3f, 0x34, 0x85, 0x08, 0x3e,
  0x4a, 0x86, 0x84, 0x3d, 0x14, 0xbc, 0x93, 0xbe, 0xb8, 0x05, 0x06, 0x3e,
  0x9b, 0x96, 0xa0, 0x3e, 0xe5, 0xda, 0xff, 0x3e, 0x15, 0xaa, 0x1c, 0x3d,
  0x6b, 0xf9, 0xaf, 0xbc, 0x66, 0x04, 0x95, 0x3e, 0x5a, 0x76, 0x20, 0xbd,
  0x39, 0x16, 0x3d, 0x3f, 0xf3, 0x62, 0x04, 0x3f, 0x07, 0xf9, 0x8d, 0x3d,
  0xf8, 0x19, 0xca, 0xbe, 0x6d, 0xb5, 0x4c, 0x38, 0xe1, 0xe1, 0xe5, 0x3e,
  0xde, 0xa9, 0xbc, 0x3d, 0xbf, 0x5d, 0x0e, 0x3e, 0x47, 0x65, 0x81, 0xbe,
  0x40, 0x3c, 0x97, 0x3d, 0x5b, 0x38, 0x14, 0x3f, 0x17, 0xf5, 0x5d, 0x3e,
  0xc8, 0x26, 0x22, 0x3e, 0x3e, 0x0e, 0xbf, 0x3d, 0x00, 0x08, 0x4d, 0x3e,
  0x3d, 0xab, 0x88, 0xbd, 0xb0, 0x73, 0x01, 0x3f, 0x13, 0xf1, 0x1e, 0x3f,
  0x7d, 0x5e, 0xb1, 0xba, 0x9e, 0xbc, 0x87, 0xbe, 0xbf, 0xc7, 0x8d, 0xbe,
  0x9c, 0xe8, 0xe2, 0x3e, 0x9e, 0x75, 0x00, 0x3d, 0x73, 0x13, 0x64, 0x3d,
  0xba, 0xf5, 0xd7, 0xbd, 0x42, 0x89, 0x8b, 0x3d, 0x6c, 0x96, 0xb8, 0x3e,
  0xdb, 0x2a, 0x9a, 0x3e, 0xb0, 0xd2, 0x5c, 0x3e, 0xa8, 0x34, 0x2c, 0x3d,
  0x97, 0xaa, 0xfe, 0xbd, 0x22, 0x75, 0x8e, 0x3d, 0xdd, 0xd1, 0x17, 0x3e,
  0xcf, 0xf5, 0xc8, 0x3d, 0x58, 0x40, 0x70, 0x3e, 0x8c, 0x0d, 0x95, 0x3c,
  0x41, 0x1d, 0x95, 0xbe, 0xed, 0xb2, 0x7c, 0x3e, 0x96, 0x72, 0xc6, 0x3c,
  0x71, 0x3e, 0x2f, 0x3d, 0xd9, 0x1b, 0x18, 0xbe, 0x1c, 0x35, 0x20, 0x3c,
  0xde, 0x1c, 0x05, 0x3f, 0x82, 0xcc, 0xa7, 0xbd, 0x81, 0xd6, 0x20, 0x3e,
  0x72, 0xa4, 0xb9, 0x3d, 0xb1, 0xbf, 0x0d, 0xbe, 0x3c, 0x0e, 0x9c, 0xbd,
  0xc1, 0xea, 0x9d, 0xbe, 0x0a, 0x88, 0x79, 0x3e, 0xf3, 0xa8, 0xb9, 0x3e,
  0x46, 0xf6, 0x83, 0xbe, 0x63, 0xaa, 0xcf, 0xbd, 0xa8, 0xb9, 0x74, 0x3e,
  0x64, 0x8b, 0x5f, 0x3c, 0xfe, 0x10, 0x00, 0x3d, 0xf7, 0xde, 0x83, 0xbe,
  0xdc, 0x00, 0x0c, 0x3d, 0xc0, 0x16, 0xf2, 0x3e, 0x40, 0x34, 0x09, 0x3e,
  0x91, 0xc3, 0x54, 0xbb, 0x32, 0x5b, 0x94, 0x3d, 0x4f, 0x48, 0x74, 0xba,
  0xfe, 0xf9, 0xbd, 0xbe, 0x9b, 0x00, 0xc1, 0xbc, 0x6d, 0x1f, 0xe8, 0xbd,
  0x01, 0x45, 0x4a, 0x3e, 0x0c, 0xf6, 0xe8, 0xbe, 0xca, 0x40, 0xd9, 0xbe,
  0x77, 0xc1, 0xaa, 0x3e, 0x34, 0x92, 0x88, 0x3d, 0xd7, 0x65, 0x81, 0xbe,
  0x61, 0x3e, 0x6f, 0xbe, 0xc2, 0xcb, 0xe9, 0x3c, 0x02, 0xd4, 0xaa, 0x3e,
  0x7a, 0x8a, 0x8e, 0xbe, 0x08, 0x8f, 0xb7, 0xbd, 0x17, 0x93, 0x38, 0x3c,
  0x52, 0xae, 0x99, 0xb9, 0xc7, 0x75, 0x96, 0xbd, 0x45, 0x3e, 0x7d, 0xbe,
  0x65, 0x8f, 0x6e, 0xbd, 0x35, 0x0e, 0xb7, 0x3e, 0xf0, 0xef, 0x1f, 0xbe,
  0x36, 0x8d, 0xa4, 0xbe, 0x5d, 0x54, 0xbb, 0x3e, 0xfc, 0x15, 0xb8, 0x3e,
  0xc2, 0x05, 0xcb, 0x3e, 0xc0, 0x95, 0x84, 0xbe, 0x11, 0xe1, 0x5c, 0xbe,
  0x15, 0x04, 0x12, 0x3e, 0x01, 0xa7, 0x96, 0xbd, 0x43, 0x3b, 0x4c, 0xbe,
  0xc8, 0xc8, 0x8a, 0xbd, 0x3b, 0xcb, 0x69, 0x3d, 0x1e, 0x8e, 0x34, 0x3e,
  0xed, 0x4e, 0x40, 0xbd, 0x0a, 0xb5, 0xb9, 0xbd, 0x66, 0x53, 0x8a, 0xbe,
  0x7d, 0x64, 0xd6, 0xbe, 0x8e, 0x57, 0x10, 0xbc, 0xe0, 0xf4, 0x0f, 0x3f,
  0x00, 0x63, 0xb8, 0xbe, 0xec, 0x92, 0x97, 0x3b, 0x4b, 0x15, 0xdd, 0xbd,
  0x74, 0xe2, 0x99, 0x3d, 0x0c, 0x15, 0xca, 0x3e, 0xd8, 0xf9, 0x00, 0x3d,
  0x85, 0xba, 0xd4, 0xbe, 0x4f, 0x2b, 0x99, 0xbe, 0x33, 0x7c, 0x17, 0x3d,
  0x66, 0xe4, 0x0e, 0x3e, 0x7a, 0x2c, 0x6e, 0x3c, 0x94, 0x28, 0x67, 0xbd,
  0xe9, 0xb6, 0xb3, 0x3c, 0x1d, 0x61, 0xcd, 0xbc, 0x5e, 0x19, 0xbc, 0x3a,
  0xa3, 0xee, 0x90, 0x3e, 0xf6, 0x41, 0x62, 0x3e, 0xcc, 0xe8, 0xb4, 0x3d,
  0x25, 0x0d, 0x41, 0x3c, 0x51, 0x22, 0x77, 0x3e, 0xb0, 0x7c, 0xdd, 0x3d,
  0xc0, 0xdd, 0x3a, 0x3e, 0x15, 0xae, 0x62, 0xbe, 0x84, 0x0c, 0xdd, 0xbd,
  0xfd, 0xe8, 0x11, 0x3e, 0x1a, 0x4b, 0x98, 0xbc, 0x1f, 0xae, 0xcf, 0x3d,
  0xba, 0xc4, 0xcb, 0x3d, 0x2c, 0xd2, 0x52, 0x3e, 0xef, 0xe9, 0x8e, 0xbd,
  0x55, 0x98, 0x73, 0x3d, 0xe7, 0x1c, 0xd1, 0x3e, 0xe6, 0x27, 0xe2, 0xbd,
  0xfa, 0xa7, 0x0d, 0x3e, 0xf4, 0x64, 0x23, 0x3d, 0xc4, 0x6c, 0x4b, 0x3e,
  0xfd, 0xaa, 0xb2, 0x3e, 0x89, 0xa5, 0xbd, 0x3e, 0x2b, 0xc2, 0x4a, 0x3c,
  0xee, 0xff, 0x21, 0xbe, 0xa8, 0x81, 0xd6, 0x3d, 0xca, 0x3b, 0x09, 0x3e,
  0xfe, 0xbd, 0xba, 0x3d, 0x2b, 0x78, 0x9a, 0x3d, 0x1b, 0x70, 0x2e, 0x3e,
  0x13, 0x83, 0x51, 0xbe, 0xa7, 0x48, 0xe0, 0x3a, 0x82, 0x26, 0x1d, 0x3f,
  0xf6, 0x6e, 0x09, 0xbd, 0xfa, 0x3f, 0x49, 0x3d, 0xf3, 0x00, 0x0c, 0xbe,
  0x74, 0xb1, 0x54, 0x3e, 0x8b, 0xdd, 0xd3, 0x3e, 0x78, 0x24, 0x37, 0xbd,
  0x0b, 0x35, 0xe4, 0xbc, 0x52, 0xcc, 0x2b, 0xbe, 0xbf, 0x86, 0xb4, 0xbd,
  0x3a, 0x03, 0xe3, 0x3c, 0x77, 0x40, 0xe4, 0xbc, 0x1e, 0x44, 0x31, 0x3e,
  0xc2, 0x43, 0x09, 0xbe, 0xbf, 0xfc, 0x2b, 0xbd, 0x4c, 0x68, 0x69, 0xbd,
  0x2e, 0x98, 0xa5, 0x3e, 0xc6, 0x59, 0x92, 0xbe, 0x15, 0x4f, 0xf0, 0x3d,
  0x20, 0x67, 0xc1, 0xbd, 0xa5, 0xfc, 0x6b, 0x3e, 0x54, 0xa1, 0x92, 0x3e,
  0xa5, 0xa2, 0x1f, 0x3e, 0xa8, 0x32, 0x9e, 0xbe, 0x49, 0x8a, 0xd9, 0xbd,
  0x8a, 0x5c, 0x8c, 0xbd, 0x3c, 0xd3, 0x7a, 0xbe, 0x8a, 0x0e, 0x3a, 0xbe,
  0x0e, 0x05, 0x44, 0xbd, 0x62, 0x4f, 0xb6, 0x3d, 0x7d, 0xa0, 0x9f, 0xbd,
  0x1e, 0x54, 0xce, 0xbd, 0x2c, 0x0f, 0x04, 0x3e, 0xbd, 0x14, 0x56, 0x3e,
  0xce, 0xf1, 0x16, 0xbe, 0xd9, 0x49, 0x9d, 0xbc, 0x16, 0xb6, 0x39, 0xbe,
  0x7e, 0x85, 0xd8, 0x3e, 0xf0, 0x22, 0x94, 0xbb, 0x54, 0x8e, 0xd2, 0xbd,
  0x64, 0xb6, 0x17, 0xbe, 0x11, 0xd9, 0x35, 0x3d, 0x69, 0x59, 0x44, 0x3c,
  0xfa, 0x30, 0xc8, 0xbc, 0x3b, 0x37, 0x3b, 0xbe, 0x0d, 0x9d, 0x9f, 0xbb,
  0x59, 0x4f, 0x48, 0x3c, 0xcc, 0x59, 0x14, 0xbd, 0x65, 0x1f, 0x16, 0x3f,
  0x63, 0x3f, 0x04, 0xbd, 0x1c, 0x4e, 0x0f, 0xbe, 0x08, 0x97, 0x97, 0x3e,
  0x7f, 0xac, 0x00, 0xbf, 0x2a, 0x71, 0xcf, 0xbd, 0xde, 0x65, 0xe3, 0xbe,
  0x2c, 0x97, 0x80, 0xbe, 0xbe, 0x43, 0x0c, 0xbe, 0x7a, 0xa6, 0xb0, 0xbe,
  0x4a, 0x64, 0x65, 0xbd, 0x05, 0x7a, 0x87, 0xbe, 0xb3, 0x1a, 0x7e, 0xbe,
  0xd0, 0x69, 0xc7, 0x3e, 0x83, 0xf6, 0xa5, 0x3e, 0x77, 0xb4, 0x0d, 0xbc,
  0x26, 0x7e, 0x70, 0xbd, 0x43, 0x69, 0x37, 0x3d, 0x49, 0xda, 0xc4, 0xbd,
  0xd9, 0x4a, 0x30, 0x3e, 0xc0, 0x4e, 0xac, 0xbe, 0x60, 0x77, 0x60, 0xbe,
  0xc7, 0x51, 0x73, 0xbd, 0xa7, 0x24, 0xc3, 0x3e, 0x6e, 0xa2, 0xdb, 0xbd,
  0x40, 0x52, 0x78, 0xbd, 0xa1, 0x45, 0x48, 0x3e, 0x5e, 0x2a, 0x2a, 0x3d,
  0x80, 0x70, 0x28, 0xbe, 0xd8, 0xa1, 0x02, 0x3e, 0x86, 0x63, 0x09, 0x3e,
  0xdc, 0xca, 0x3a, 0xbd, 0x69, 0x52, 0x0c, 0xbe, 0x5a, 0xb9, 0xa4, 0xbc,
  0x42, 0x8c, 0xa7, 0xbd, 0x5d, 0x52, 0x13, 0x3e, 0x6e, 0x73, 0xcc, 0xbe,
  0xcf, 0x8a, 0x1e, 0xbe, 0xe5, 0x37, 0x48, 0xbe, 0x6d, 0xe8, 0xb1, 0x3e,
  0xd6, 0xa0, 0xac, 0xbd, 0x1b, 0x31, 0xe5, 0x3d, 0xcb, 0x50, 0xbc, 0x3e,
  0x0b, 0xc2, 0x89, 0xbd, 0x19, 0xa7, 0x0c, 0x3e, 0xbe, 0x61, 0x3a, 0xbe,
  0x70, 0xa7, 0x4c, 0x3e, 0xea, 0x88, 0x8e, 0xbc, 0x06, 0xe2, 0xe1, 0xbd,
  0xbd, 0xae, 0x9a, 0x3c, 0x89, 0x06, 0x91, 0x3d, 0x07, 0xd7, 0xc1, 0x3e,
  0xaf, 0x15, 0x1e, 0xbf, 0x9d, 0x06, 0x25, 0xbd, 0x9b, 0xcd, 0xd2, 0xbe,
  0x2d, 0x99, 0xcd, 0x3d, 0x0c, 0xce, 0x18, 0x3e, 0x18, 0x54, 0x5e, 0x3d,
  0x51, 0x01, 0xb4, 0x3e, 0x8a, 0xf7, 0x85, 0xbe, 0xd7, 0x4f, 0xf3, 0x3c,
  0x15, 0x93, 0xd8, 0xbd, 0x27, 0x30, 0x9d, 0x3e, 0xbc, 0xd3, 0x83, 0xbc,
  0x5a, 0x24, 0x2a, 0xbd, 0x55, 0x2e, 0x16, 0x3d, 0x4c, 0x1f, 0x7a, 0x3d,
  0xd7, 0xa5, 0x99, 0xbd, 0x93, 0x1e, 0x15, 0xbf, 0x14, 0x17, 0x4a, 0xbe,
  0x56, 0xc1, 0x3c, 0xbf, 0x7b, 0x0e, 0xda, 0xbd, 0xa2, 0x18, 0x2f, 0x3e,
  0xd5, 0x54, 0xec, 0xbe, 0x54, 0xe0, 0x91, 0x3e, 0xc8, 0xa0, 0x49, 0xbf,
  0xa4, 0xf3, 0x2b, 0xbe, 0x98, 0xde, 0x10, 0xbe, 0xdd, 0x31, 0xc1, 0x3e,
  0xb7, 0x0a, 0xab, 0xbd, 0x73, 0x74, 0x61, 0xbe, 0x8c, 0x38, 0xa2, 0xbd,
  0x58, 0x5b, 0x8b, 0xbd, 0x11, 0xd7, 0x4b, 0x3e, 0xac, 0x05, 0xeb, 0xbe,
  0x13, 0x9f, 0x24, 0xbe, 0x40, 0x90, 0xa5, 0xbe, 0x46, 0xb3, 0x94, 0xbd,
  0x80, 0x4f, 0xd8, 0x3c, 0x1c, 0xf7, 0x06, 0xbf, 0x3f, 0xc2, 0x26, 0x3e,
  0x53, 0x7a, 0x03, 0xbf, 0x57, 0xd6, 0x17, 0xbf, 0x47, 0x55, 0xd1, 0x3e,
  0x6d, 0x97, 0x88, 0x3e, 0x9b, 0x95, 0xfa, 0x3d, 0xb7, 0x9a, 0x59, 0xbe,
  0x4d, 0xb3, 0xf5, 0xbd, 0x8a, 0x00, 0xc4, 0x3d, 0xfe, 0x3b, 0x17, 0x3e,
  0xe8, 0x25, 0x94, 0xbd, 0xf2, 0x56, 0x41, 0xbe, 0x28, 0x33, 0xde, 0xbd,
  0x06, 0x33, 0x9a, 0x3d, 0x5d, 0x16, 0x0c, 0x3d, 0xe8, 0x18, 0x46, 0xbe,
  0x5e, 0x12, 0xa3, 0x3d, 0x5b, 0x29, 0x27, 0x3d, 0xec, 0xe9, 0x00, 0xbf,
  0xfd, 0x5d, 0x67, 0x3c, 0xa3, 0xa1, 0xb5, 0x3d, 0x6e, 0xad, 0x90, 0x3d,
  0xad, 0x60, 0x0d, 0x3e, 0x8e, 0x2b, 0x91, 0xbe, 0xd6, 0x2c, 0x99, 0xbd,
  0x28, 0x26, 0x32, 0x3c, 0x05, 0xe5, 0x23, 0xbe, 0x62, 0x6c, 0x8c, 0xbd,
  0x75, 0x57, 0x82, 0xbd, 0x0f, 0x5a, 0x67, 0xbd, 0x7b, 0xdc, 0x80, 0xbe,
  0x49, 0xc2, 0x38, 0x3d, 0xce, 0xd4, 0xf1, 0x3d, 0x0f, 0x4a, 0xf1, 0xbd,
  0x1c, 0x38, 0x09, 0xbe, 0xd2, 0x3f, 0x26, 0x3e, 0x50, 0xce, 0x86, 0xbd,
  0x92, 0x8b, 0x6e, 0xbe, 0x4a, 0x35, 0x59, 0xbe, 0x4e, 0xc0, 0xfd, 0xbd,
  0xaf, 0x25, 0x45, 0xbc, 0x12, 0x3e, 0xaf, 0xbd, 0x31, 0x8a, 0x40, 0xbe,
  0xd6, 0x1a, 0x56, 0x3d, 0x49, 0x19, 0x81, 0xbd, 0x89, 0xa2, 0x5f, 0xbe,
  0xd8, 0x97, 0x96, 0xbe, 0x83, 0x73, 0x23, 0x3e, 0x5b, 0x2b, 0x26, 0xbe,
  0x90, 0xfe, 0x4f, 0x3d, 0x3d, 0xa5, 0x19, 0x3e, 0xfc, 0x06, 0x3d, 0x3e,
  0xc1, 0x27, 0x29, 0xbe, 0x4c, 0x56, 0x55, 0xbe, 0x72, 0x5a, 0x90, 0xbb,
  0x37, 0x79, 0xaa, 0xbd, 0xb0, 0x93, 0x66, 0xbe, 0x87, 0x52, 0x6d, 0x3d,
  0x88, 0x09, 0x3c, 0xbe, 0x54, 0x3b, 0x53, 0xbe, 0xe5, 0x76, 0xca, 0x3d,
  0x45, 0x28, 0x5e, 0xbe, 0xec, 0x1d, 0x1d, 0xbe, 0xbc, 0x11, 0x18, 0xbe,
  0xd2, 0x62, 0x61, 0xbe, 0x4e, 0x83, 0xc0, 0xbd, 0xf7, 0x55, 0xfa, 0x3d,
  0x70, 0xfa, 0x05, 0xbe, 0xe2, 0x1c, 0x01, 0x3e, 0x9c, 0xda, 0x5d, 0xbd,
  0x1f, 0x51, 0x05, 0x3e, 0xb9, 0xd5, 0xf0, 0x3c, 0x2e, 0x63, 0x15, 0xba,
  0x24, 0xb4, 0x91, 0xbe, 0x89, 0xc8, 0x82, 0xbd, 0x34, 0xc2, 0x09, 0xbe,
  0xd4, 0xd5, 0xee, 0xbd, 0x03, 0x5b, 0x34, 0x3d, 0x09, 0xe1, 0x86, 0xbe,
  0x3d, 0x83, 0x86, 0x3d, 0x7e, 0xb3, 0x93, 0xbd, 0xea, 0xbb, 0xb3, 0xbd,
  0x3b, 0x1d, 0xce, 0x3d, 0xd7, 0x07, 0x2f, 0x3e, 0xaa, 0x1a, 0x7c, 0x3d,
  0xa3, 0x4e, 0x95, 0xbe, 0x81, 0x8d, 0x1d, 0x3e, 0xa9, 0x96, 0x41, 0xbe,
  0x8c, 0x65, 0xd4, 0xbc, 0xef, 0x56, 0xea, 0x3d, 0x23, 0xfa, 0x97, 0xbd,
  0xd5, 0x30, 0x12, 0x3e, 0x6a, 0x02, 0x04, 0xbd, 0xde, 0x7c, 0x96, 0x3c,
  0xe7, 0xd1, 0x5d, 0xbe, 0x6a, 0xc2, 0x67, 0xbd, 0xcb, 0x4c, 0x52, 0xbe,
  0xbe, 0xb5, 0x8b, 0x3d, 0xa6, 0x9c, 0xb9, 0xbd, 0x0c, 0xb2, 0xea, 0x3c,
  0x13, 0xb7, 0x88, 0xbe, 0x54, 0xb2, 0xb8, 0xbb, 0xea, 0x23, 0xda, 0x3d,
  0x4c, 0x0e, 0x23, 0xbe, 0x3f, 0xf0, 0x49, 0xbe, 0x09, 0x9a, 0x7c, 0x3d,
  0xe0, 0x13, 0xdf, 0x3d, 0xcd, 0xc5, 0xd2, 0x3d, 0x4b, 0xeb, 0x97, 0xbd,
  0x9a, 0x45, 0x8f, 0x3c, 0xb3, 0x60, 0x6e, 0xbd, 0xb1, 0x6e, 0xce, 0x3d,
  0xf4, 0x76, 0x7d, 0x3c, 0x9b, 0x72, 0xbf, 0x3e, 0x67, 0x43, 0xda, 0x3d,
  0x4f, 0x09, 0xf1, 0x3d, 0xf1, 0x42, 0x35, 0xbe, 0x39, 0xf4, 0x19, 0xbe,
  0x1f, 0x49, 0xd4, 0xbd, 0x5d, 0x80, 0x2e, 0xbe, 0x24, 0xc9, 0xf3, 0xbc,
  0xc6, 0x33, 0x0f, 0x3d, 0x51, 0xcc, 0x00, 0xbe, 0x03, 0x89, 0x9d, 0xbd,
  0x46, 0x16, 0x42, 0xbe, 0x10, 0xce, 0x5a, 0xbe, 0x0b, 0xf2, 0xae, 0xbd,
  0xca, 0xf1, 0x05, 0xbe, 0x8f, 0x31, 0x15, 0x3d, 0x2d, 0xdb, 0xce, 0xbc,
  0x7f, 0xbc, 0x41, 0x3e, 0xb8, 0xc3, 0x21, 0xbe, 0xe5, 0x51, 0x87, 0x3b,
  0x66, 0x44, 0xd6, 0xbd, 0xd4, 0x2f, 0x0a, 0xbe, 0x84, 0xef, 0x44, 0xbe,
  0x79, 0x5b, 0xf9, 0xbd, 0xa7, 0xd2, 0xd2, 0x3d, 0x8d, 0x88, 0xc9, 0xbe,
  0x4a, 0x08, 0x8d, 0xbe, 0xfb, 0x9f, 0xde, 0xbe, 0x02, 0xc7, 0x80, 0xbe,
  0xdc, 0x2e, 0xcc, 0x3d, 0xeb, 0x84, 0x61, 0xbe, 0x49, 0xbc, 0xef, 0xbd,
  0xbf, 0xfc, 0x21, 0x3d, 0x6b, 0x95, 0x94, 0xbe, 0xae, 0x3f, 0x8c, 0x3e,
  0xf8, 0xdd, 0x48, 0x3e, 0x95, 0x32, 0xfc, 0x3d, 0x82, 0xed, 0x79, 0x3d,
  0x86, 0xda, 0xdd, 0xbe, 0xe1, 0xf8, 0xed, 0xbd, 0x8a, 0x57, 0x13, 0x3e,
  0x3e, 0x1e, 0x8d, 0xbe, 0x83, 0xb3, 0xf8, 0xbe, 0x9f, 0xab, 0xd2, 0xbe,
  0x66, 0x30, 0x9f, 0x3d, 0x52, 0x92, 0xc9, 0x3c, 0xa5, 0x67, 0x83, 0xbd,
  0x38, 0x2f, 0x36, 0x3e, 0x23, 0xd6, 0x63, 0x3d, 0x0c, 0x44, 0xad, 0xbc,
  0x3d, 0x02, 0x42, 0x3e, 0x97, 0x93, 0xb5, 0x3c, 0x86, 0x57, 0x9f, 0xbe,
  0xee, 0xd0, 0xd8, 0x3c, 0xf2, 0x99, 0x96, 0xbe, 0x1a, 0xa7, 0x53, 0xbe,
  0x3d, 0x96, 0xc6, 0x3e, 0xc8, 0x26, 0x8c, 0xbe, 0xec, 0x0c, 0x5c, 0xbe,
  0xaa, 0xa0, 0x26, 0xbe, 0x2b, 0x8c, 0x73, 0x3e, 0xe6, 0x60, 0x27, 0xbd,
  0xfa, 0xfe, 0x8d, 0x3d, 0xcb, 0xc4, 0xe7, 0x3e, 0xde, 0xe5, 0x34, 0x3d,
  0x8d, 0x2e, 0x0b, 0xbd, 0xaa, 0x66, 0x62, 0xbe, 0x1d, 0xd3, 0xe4, 0xbd,
  0x9a, 0x20, 0x8c, 0xbd, 0xba, 0x7c, 0xda, 0xbd, 0xa3, 0xfc, 0x04, 0xbe,
  0x4a, 0x2f, 0x51, 0xbd, 0xa8, 0x87, 0xdb, 0x3d, 0xaf, 0x54, 0xd8, 0xbe,
  0xb7, 0x4a, 0x4f, 0x3d, 0xdf, 0xca, 0x0b, 0x3e, 0x5e, 0x34, 0x05, 0x3d,
  0x21, 0x60, 0x05, 0x3e, 0xe8, 0xdb, 0x50, 0xbd, 0x29, 0x3c, 0x2e, 0x3e,
  0x2c, 0xa1, 0x43, 0x3e, 0x9f, 0xed, 0x68, 0x3e, 0xba, 0xa5, 0xdf, 0xb9,
  0xb5, 0xb7, 0xa5, 0x3e, 0x1d, 0x6a, 0x5e, 0xbd, 0x14, 0x87, 0x5e, 0xbe,
  0x83, 0x69, 0x24, 0x3d, 0x2f, 0xa7, 0x0e, 0x3e, 0xe7, 0x80, 0x07, 0xbc,
  0x6c, 0xd4, 0x41, 0xbe, 0x36, 0x24, 0xce, 0xbc, 0x84, 0x81, 0x9e, 0xbb,
  0x49, 0xf3, 0x6f, 0xbd, 0x2a, 0x40, 0xa2, 0x3d, 0xa0, 0xe3, 0x32, 0xbd,
  0xa1, 0x0f, 0x79, 0xbd, 0x59, 0x8e, 0x5a, 0x3d, 0x65, 0xb8, 0x29, 0xbe,
  0xf9, 0xaf, 0x3e, 0xbe, 0x26, 0x67, 0x5c, 0xbe, 0x6a, 0x27, 0x43, 0x3c,
  0x93, 0xda, 0xae, 0x3d, 0x3b, 0x2e, 0x0e, 0x3e, 0x09, 0xe7, 0xd3, 0x3d,
  0xa6, 0x10, 0x9c, 0xbe, 0xe2, 0x96, 0xb9, 0xbd, 0xee, 0x75, 0x29, 0xbd,
  0xb3, 0x14, 0x5e, 0xbe, 0x61, 0x55, 0x13, 0xbe, 0xcb, 0xa6, 0x7f, 0xbd,
  0x55, 0x72, 0xf1, 0x3d, 0xa2, 0x7e, 0xed, 0xbe, 0x0d, 0x69, 0x0a, 0x3e,
  0xf5, 0x4d, 0x5f, 0xbd, 0xeb, 0x0b, 0x26, 0x3e, 0xaa, 0x07, 0xa8, 0xbd,
  0x17, 0xdd, 0x3c, 0xbd, 0x82, 0x43, 0x87, 0xbd, 0xdf, 0x89, 0x43, 0x3e,
  0x22, 0x21, 0x7d, 0x3c, 0xf0, 0x0e, 0x2e, 0xbe, 0xe2, 0xd9, 0x9c, 0xbd,
  0x11, 0xb9, 0x68, 0xbc, 0x28, 0xcf, 0x6b, 0xbd, 0x91, 0x96, 0x18, 0xbe,
  0x0b, 0x0f, 0x46, 0xbe, 0x25, 0xb5, 0xd4, 0x3d, 0x38, 0x79, 0x2a, 0xbd,
  0x6e, 0xaf, 0xb0, 0xbc, 0xaf, 0x19, 0x1b, 0xbe, 0x73, 0x3a, 0x04, 0x3e,
  0x56, 0xa0, 0xad, 0xbd, 0x0c, 0x39, 0x35, 0x3c, 0xe0, 0x63, 0xc5, 0x3d,
  0x66, 0x28, 0xf1, 0xbd, 0x64, 0xb1, 0xf9, 0xbd, 0x82, 0x88, 0x3f, 0x3e,
  0xed, 0x49, 0xa6, 0xbe, 0x16, 0xf7, 0x4e, 0xbe, 0x43, 0x78, 0x6f, 0xbe,
  0xca, 0x9c, 0x3f, 0xbe, 0xcc, 0x24, 0xce, 0x3d, 0x4e, 0x51, 0xe0, 0xbe,
  0x50, 0xdf, 0x7e, 0x3c, 0x72, 0x80, 0x2e, 0x3d, 0xb2, 0xce, 0xa7, 0xbe,
  0xa0, 0xcd, 0xa7, 0x3e, 0x66, 0x91, 0x23, 0x3e, 0xe7, 0xda, 0x64, 0x3e,
  0xb9, 0x8c, 0x45, 0x3e, 0x89, 0xbe, 0x45, 0xbd, 0x98, 0x36, 0x17, 0xbd,
  0x0c, 0x2c, 0x0c, 0x3d, 0xf8, 0x0e, 0x77, 0xbe, 0x1c, 0xc2, 0xd9, 0xbe,
  0x1c, 0x25, 0x46, 0xbe, 0xc5, 0xb7, 0xa6, 0x3d, 0xa1, 0x5d, 0x75, 0x3d,
  0x6f, 0x90, 0xd6, 0xbc, 0x94, 0x35, 0x34, 0x3e, 0x1b, 0x30, 0x90, 0xbe,
  0xa1, 0xd7, 0x58, 0xbe, 0x68, 0x3d, 0x73, 0xbc, 0x41, 0x14, 0x46, 0x3e,
  0x80, 0x5b, 0xab, 0xbd, 0x90, 0x8d, 0xa8, 0xbe, 0xf4, 0xb4, 0xb5, 0x3c,
  0x91, 0xba, 0x49, 0xbe, 0xff, 0x44, 0x6d, 0x3e, 0x91, 0x29, 0xaf, 0xbe,
  0x13, 0xcb, 0xb7, 0xbe, 0x3b, 0xb6, 0x1f, 0xbe, 0xc6, 0xde, 0x1a, 0x3e,
  0x85, 0xbe, 0x83, 0xbd, 0xe9, 0xda, 0x2e, 0x3e, 0xf7, 0x3a, 0xb9, 0x3e,
  0xfe, 0x5f, 0x71, 0xbe, 0x4a, 0xf8, 0xf8, 0x3d, 0xa9, 0xc4, 0x03, 0x3e,
  0x19, 0xb1, 0x75, 0xbe, 0xb9, 0xf0, 0xba, 0xbd, 0xb8, 0xd4, 0x2c, 0xbe,
  0x42, 0x35, 0x47, 0xbd, 0x5e, 0xb3, 0x11, 0xbe, 0xf9, 0xd0, 0x86, 0x3d,
  0x92, 0x8b, 0xd7, 0xbe, 0xf4, 0xc7, 0xd3, 0xbe, 0xf0, 0x30, 0xb6, 0xbe,
  0x76, 0x2e, 0xb9, 0xbd, 0xfe, 0x09, 0x9b, 0xbd, 0x7a, 0x13, 0xfa, 0xbc,
  0xe5, 0xa5, 0xdb, 0x3e, 0x93, 0x6c, 0xc9, 0x3c, 0x60, 0x2a, 0x56, 0xbd,
  0xfd, 0xa0, 0x41, 0x3e, 0xd3, 0x18, 0xf3, 0x3e, 0x88, 0x73, 0x3f, 0x3d,
  0xea, 0x57, 0xed, 0xbd, 0x7c, 0x5d, 0xbf, 0x3b, 0xb8, 0x28, 0x59, 0xbd,
  0x88, 0x66, 0x19, 0x3e, 0x64, 0x0f, 0xab, 0xbe, 0x3f, 0xd7, 0x5a, 0xbe,
  0xac, 0x93, 0x3e, 0xbe, 0xa5, 0x67, 0xfc, 0xbd, 0x0d, 0x2b, 0xd4, 0x3d,
  0x24, 0x57, 0xbb, 0xbe, 0xa6, 0x12, 0xb3, 0x3e, 0x82, 0x54, 0x20, 0xbe,
  0xce, 0xe9, 0x3a, 0xbd, 0xf9, 0x89, 0x3f, 0xbc, 0x2f, 0x5f, 0xa4, 0x3e,
  0x50, 0x78, 0x1f, 0xbc, 0x44, 0x5c, 0x82, 0xbe, 0x50, 0x80, 0x6a, 0xbb,
  0x95, 0x1a, 0x40, 0xbd, 0x5a, 0xb0, 0x69, 0x3e, 0xa8, 0xa9, 0x89, 0xbe,
  0x45, 0x5a, 0x4f, 0xbe, 0x49, 0x21, 0x06, 0x3d, 0x78, 0x78, 0x6a, 0x3e,
  0x70, 0x93, 0xec, 0xbb, 0x37, 0x06, 0x4a, 0xbe, 0xf4, 0xca, 0x10, 0x3d,
  0x58, 0x33, 0xac, 0x3c, 0xe5, 0x87, 0x17, 0xbe, 0x0d, 0xf7, 0x93, 0xbd,
  0x72, 0x17, 0xb0, 0x3e, 0x36, 0xef, 0xf2, 0xbd, 0xd0, 0xad, 0x30, 0x3e,
  0x87, 0x63, 0xd8, 0x3d, 0x3c, 0xc3, 0x30, 0x3d, 0x5c, 0xb5, 0x9d, 0xbe,
  0xdb, 0x12, 0x4d, 0xbd, 0x00, 0xea, 0x06, 0x3d, 0xc5, 0xab, 0xb9, 0xbd,
  0x14, 0x54, 0x0e, 0xbe, 0x44, 0xac, 0x06, 0xbe, 0xe1, 0x33, 0x55, 0xbe,
  0x26, 0xca, 0x85, 0x3e, 0xa8, 0xb2, 0x43, 0xbb, 0x89, 0x12, 0x98, 0xbe,
  0xbf, 0xac, 0xc4, 0xbd, 0x53, 0xb7, 0x8c, 0xbd, 0x60, 0xe4, 0xcf, 0xbd,
  0x0f, 0xd1, 0xe8, 0x3c, 0xda, 0x86, 0x8c, 0x3e, 0xe0, 0x5d, 0xbe, 0x3e,
  0xff, 0x31, 0x58, 0xbe, 0x20, 0xd0, 0xe5, 0xbe, 0xdd, 0x83, 0xa3, 0x3e,
  0x0c, 0x31, 0xef, 0x3e, 0x9a, 0x0f, 0x50, 0x3d, 0x09, 0x59, 0xf2, 0xbd,
  0x3f, 0x3c, 0x19, 0xbd, 0x70, 0x57, 0x3d, 0xbe, 0x2d, 0xa5, 0xa2, 0xbd,
  0xc9, 0x85, 0x6e, 0xbe, 0xe3, 0x4d, 0x79, 0xbe, 0xfc, 0x86, 0x95, 0xbe,
  0x0c, 0xe4, 0x1b, 0xbd, 0x02, 0x0c, 0x04, 0x3f, 0x23, 0x6d, 0x2f, 0x3e,
  0xdf, 0x61, 0x76, 0x3e, 0x13, 0xb6, 0x57, 0xbe, 0xb2, 0x3e, 0x4c, 0xbc,
  0xf0, 0x18, 0xb7, 0x3e, 0x87, 0x3d, 0xac, 0x3e, 0x9b, 0x9e, 0xf1, 0xbe,
  0x0b, 0x49, 0x11, 0xbe, 0xdc, 0xeb, 0x34, 0x3e, 0x49, 0x3a, 0x1e, 0xbe,
  0x9e, 0xf9, 0x24, 0x3e, 0x9c, 0x9f, 0x02, 0xbe, 0xf8, 0x3a, 0x4e, 0xbe,
  0xd0, 0x2e, 0x25, 0x3e, 0x59, 0x35, 0x01, 0x3b, 0xce, 0xc0, 0xde, 0x3e,
  0x09, 0xb2, 0x90, 0x3d, 0xff, 0xb4, 0x9c, 0x3d, 0x4a, 0x2c, 0x95, 0xbe,
  0xf1, 0x92, 0x75, 0x3e, 0x2c, 0xb6, 0x8c, 0x3e, 0x2a, 0xc3, 0xcc, 0x3e,
  0x26, 0xe3, 0x1a, 0xbf, 0x1a, 0x35, 0x40, 0x3e, 0x8b, 0xd3, 0x4f, 0x3d,
  0x25, 0x51, 0x8c, 0xbe, 0x2e, 0x48, 0xc1, 0x3e, 0x80, 0x67, 0x12, 0x3c,
  0xfe, 0x2f, 0x8a, 0x3d, 0x33, 0x78, 0x83, 0xbd, 0xe3, 0xb8, 0x4f, 0xbd,
  0x11, 0x28, 0x71, 0x3e, 0x20, 0x06, 0x35, 0x3c, 0x39, 0x61, 0x3a, 0x3e,
  0xd2, 0xaf, 0x10, 0xbe, 0xd8, 0x3a, 0x61, 0x3e, 0x26, 0x9d, 0x97, 0x3e,
  0x11, 0x4d, 0xca, 0x3e, 0x9d, 0xbb, 0x61, 0x3d, 0xc9, 0xe5, 0x29, 0x3d,
  0xf3, 0xe5, 0x93, 0x3d, 0x10, 0x35, 0x0d, 0xbd, 0xf4, 0x63, 0x04, 0xbe,
  0xf2, 0x86, 0x74, 0x3e, 0xf7, 0xb1, 0x2f, 0xbc, 0x82, 0x37, 0x58, 0xbd,
  0x0f, 0x09, 0x7d, 0xbd, 0x50, 0x7a, 0x9d, 0x3e, 0xd8, 0x02, 0x01, 0x3c,
  0xf3, 0x56, 0x15, 0xbd, 0xc0, 0x15, 0x05, 0xbe, 0xb7, 0xfd, 0x12, 0x3e,
  0x17, 0x94, 0x12, 0x3e, 0x0d, 0x8e, 0x87, 0x3e, 0x3d, 0xad, 0xd3, 0xbe,
  0xaf, 0xcf, 0x14, 0x3e, 0x67, 0xfb, 0x73, 0x3e, 0xb9, 0x68, 0x4a, 0xbe,
  0x7a, 0x0b, 0xdd, 0x3d, 0xc5, 0x12, 0x0a, 0x3e, 0x38, 0x25, 0xd7, 0xbd,
  0x7e, 0x11, 0x4e, 0x3d, 0x12, 0x21, 0x15, 0xbe, 0xee, 0xfd, 0x12, 0x3f,
  0x84, 0x2d, 0xea, 0x3c, 0xb4, 0xe8, 0xc5, 0x3d, 0x55, 0x4a, 0x3f, 0xbe,
  0x70, 0x1c, 0x1e, 0x3e, 0xcc, 0xb7, 0x1d, 0x3e, 0x03, 0xb2, 0x34, 0x3c,
  0x23, 0xb8, 0xfc, 0xbe, 0xb7, 0x34, 0x9c, 0x3d, 0xab, 0xf3, 0xed, 0xbc,
  0x44, 0x57, 0x29, 0xbf, 0x69, 0x99, 0xa6, 0xbd, 0x7f, 0x15, 0x2f, 0xbe,
  0x88, 0x4a, 0x8d, 0xbe, 0x21, 0x05, 0xb3, 0x3d, 0xa7, 0x03, 0xb9, 0xbc,
  0xff, 0x20, 0xae, 0x3e, 0xfb, 0xcc, 0x28, 0x3e, 0x20, 0xb0, 0xf8, 0x3d,
  0x16, 0xd8, 0x5d, 0xbe, 0xae, 0x1f, 0xf2, 0xbc, 0xb5, 0x0f, 0xfa, 0x3e,
  0x0f, 0xcd, 0x99, 0x3c, 0x48, 0x6b, 0xa2, 0xbe, 0x03, 0x0f, 0x19, 0xbe,
  0x46, 0x3c, 0x4d, 0xbd, 0xea, 0xb4, 0x38, 0xbe, 0x95, 0xe6, 0x5b, 0x3d,
  0x56, 0x28, 0x97, 0xbd, 0x36, 0x29, 0xf3, 0x3d, 0xdf, 0xcf, 0xb1, 0x3c,
  0x7b, 0xa1, 0x16, 0xbd, 0x17, 0x41, 0x1c, 0x3f, 0x79, 0xe8, 0x5f, 0xbe,
  0x42, 0x67, 0x58, 0xbe, 0x0a, 0x7c, 0xc3, 0xbc, 0x08, 0x03, 0xaa, 0xbd,
  0xcb, 0x3a, 0xcf, 0x3d, 0x4c, 0x1d, 0x99, 0xbd, 0xd6, 0x54, 0xd2, 0xbd,
  0xc7, 0x90, 0x05, 0xbe, 0xd9, 0xc5, 0x88, 0xbd, 0x47, 0xb2, 0xce, 0xbc,
  0x65, 0x12, 0x34, 0x3d, 0xe5, 0x42, 0x4e, 0xbd, 0x6e, 0xe4, 0x01, 0x3e,
  0x4c, 0x5b, 0xa5, 0x3b, 0xbf, 0x43, 0x2a, 0xbe, 0x38, 0x2d, 0x9b, 0x3c,
  0xaf, 0x26, 0x8d, 0xbe, 0x80, 0x86, 0xe7, 0x3b, 0x3e, 0x6e, 0x86, 0x3c,
  0xd5, 0x2c, 0xf1, 0xbe, 0xa7, 0xb0, 0x70, 0xbe, 0xda, 0x3c, 0xa9, 0x3d,
  0x41, 0x62, 0x71, 0xbe, 0x1c, 0xdb, 0x0c, 0xbe, 0x0a, 0x1c, 0x40, 0x3e,
  0xb3, 0xa9, 0xb0, 0xbe, 0xec, 0x62, 0x67, 0xbe, 0xd5, 0x21, 0x2c, 0xbe,
  0x8a, 0xff, 0xf3, 0xbd, 0x53, 0x4d, 0xb8, 0x3d, 0xb6, 0x5f, 0x7e, 0xbe,
  0xde, 0xdb, 0xdf, 0x3b, 0xed, 0x1c, 0xd3, 0xbe, 0x3c, 0x51, 0x39, 0xbe,
  0xe0, 0x36, 0x11, 0x3e, 0x83, 0x7a, 0x8f, 0xbe, 0xe5, 0xe0, 0x34, 0xbe,
  0xb2, 0xd7, 0x94, 0xbe, 0xde, 0xd9, 0x80, 0x3c, 0x8f, 0xda, 0xf3, 0x3b,
  0x8b, 0x72, 0xc5, 0xbb, 0xa5, 0x37, 0x8c, 0x3e, 0x8a, 0x0a, 0x16, 0xbe,
  0x9a, 0xc9, 0xef, 0x3d, 0xb1, 0x8b, 0x87, 0xbd, 0xf2, 0xaf, 0x53, 0xbe,
  0x52, 0x46, 0x81, 0xbe, 0x92, 0x6a, 0xa4, 0x3d, 0x79, 0xb2, 0x9a, 0xbe,
  0xcb, 0x08, 0x10, 0xbe, 0x3c, 0xcf, 0x8e, 0x3e, 0x9b, 0xd7, 0xa0, 0xbe,
  0x44, 0xf6, 0x47, 0xbe, 0x77, 0x12, 0xe3, 0xbd, 0xaa, 0x3f, 0x20, 0x3e,
  0x5a, 0x8d, 0x9e, 0xbd, 0x09, 0xb6, 0x3f, 0x3e, 0xc4, 0x64, 0x94, 0x3e,
  0xa8, 0x7b, 0xc1, 0xbd, 0xe9, 0x08, 0x49, 0x3d, 0xc2, 0xc4, 0x40, 0x3a,
  0x53, 0x7a, 0x8d, 0x3e, 0xc9, 0x75, 0x8e, 0xbe, 0xa4, 0xa2, 0x3d, 0x3e,
  0xa3, 0x13, 0xd1, 0xbd, 0x3f, 0x74, 0xe4, 0xbd, 0x99, 0x76, 0x89, 0x3d,
  0xa6, 0xe5, 0x0d, 0xbd, 0x13, 0x92, 0x58, 0x3d, 0x6d, 0x0c, 0x8a, 0xbe,
  0xeb, 0xb5, 0x24, 0xbe, 0x49, 0xb5, 0xfe, 0xbd, 0x5f, 0xc0, 0x3b, 0x3d,
  0x0c, 0x7a, 0x98, 0x3d, 0xbc, 0xc8, 0x95, 0xbe, 0x3e, 0xbc, 0x48, 0x3b,
  0xe8, 0x66, 0x16, 0x3e, 0x89, 0x0b, 0x37, 0x3e, 0x31, 0xdf, 0xa0, 0xbc,
  0x1d, 0xee, 0x12, 0x3b, 0x24, 0xdc, 0xc2, 0x3b, 0x71, 0x33, 0x0b, 0xbd,
  0x83, 0x4f, 0x18, 0xbd, 0xc2, 0xf0, 0x6b, 0xbe, 0xcf, 0xd9, 0x1f, 0xbd,
  0x46, 0x1e, 0xb9, 0x3d, 0x49, 0xe0, 0x8a, 0x3d, 0xe2, 0xbc, 0x0b, 0xbe,
  0xf0, 0x97, 0x22, 0xbe, 0x5b, 0x56, 0x6b, 0xbd, 0xb2, 0x38, 0xc9, 0xbc,
  0xf4, 0x34, 0x1b, 0xbe, 0xee, 0x03, 0xa8, 0xbc, 0x8c, 0xd8, 0x64, 0x3b,
  0x50, 0x58, 0x0c, 0xbe, 0x04, 0x34, 0xe4, 0x3d, 0x58, 0xaf, 0x10, 0xbc,
  0x0c, 0xd5, 0x6d, 0x3d, 0xd2, 0xc8, 0x0e, 0xbe, 0xf3, 0x29, 0xea, 0xbd,
  0x14, 0x95, 0xca, 0xbc, 0xe6, 0xf7, 0x15, 0xbe, 0xca, 0x89, 0x18, 0xbe,
  0xb0, 0x4a, 0x85, 0xbe, 0x63, 0x75, 0x8f, 0xbd, 0xde, 0x8e, 0x80, 0xbc,
  0x12, 0x52, 0xdd, 0x3d, 0xd4, 0xe0, 0x2f, 0x3d, 0xe0, 0x86, 0x98, 0x3d,
  0x70, 0x3f, 0xe5, 0xbd, 0x55, 0x0c, 0xd2, 0x3d, 0x81, 0x42, 0x44, 0x3b,
  0xc0, 0xc2, 0x86, 0xbc, 0x46, 0x91, 0x7d, 0xbd, 0x51, 0x9c, 0x02, 0xbf,
  0x33, 0x9c, 0xb7, 0xbd, 0xb3, 0x0d, 0x43, 0x3d, 0x79, 0xe5, 0xc3, 0x3d,
  0x94, 0x84, 0x1a, 0xbd, 0x40, 0x15, 0xbd, 0xbd, 0xa5, 0x01, 0x28, 0xbe,
  0x57, 0x70, 0x66, 0xbd, 0xe8, 0x4f, 0x9d, 0xbe, 0x21, 0x14, 0xb6, 0xbe,
  0xa1, 0xac, 0x47, 0xbe, 0x6f, 0xff, 0x65, 0xbe, 0xfa, 0x78, 0xdd, 0xbc,
  0xc4, 0x2e, 0xd1, 0xbc, 0x47, 0xfd, 0xd1, 0x3c, 0x1e, 0xd3, 0x87, 0xbd,
  0x79, 0xac, 0xe0, 0xbe, 0xc1, 0xf1, 0x12, 0x3e, 0x79, 0x5b, 0x9f, 0xbc,
  0x71, 0xfe, 0x98, 0xbe, 0x8a, 0xf3, 0xe6, 0xbd, 0x41, 0x69, 0x7b, 0xbe,
  0x39, 0xa3, 0x99, 0x3d, 0x0e, 0x40, 0x3b, 0xbe, 0x54, 0x14, 0x50, 0xbe,
  0xc5, 0x7d, 0xde, 0x3c, 0xc7, 0x0f, 0x34, 0x3e, 0x88, 0x06, 0x0b, 0xbe,
  0x7d, 0xd8, 0x3b, 0xbc, 0xf1, 0xe2, 0x10, 0xbe, 0x00, 0xba, 0xe8, 0x3c,
  0x4c, 0x14, 0x6c, 0x3d, 0x03, 0x2b, 0xe4, 0xbd, 0x90, 0xea, 0x40, 0x3d,
  0x65, 0x41, 0x07, 0xbb, 0xec, 0x3c, 0x8c, 0xbd, 0x71, 0x50, 0x26, 0x3d,
  0x2e, 0x81, 0x2d, 0xbe, 0x77, 0xe0, 0xc8, 0x3d, 0x3c, 0xeb, 0x5a, 0xbd,
  0x86, 0x66, 0xa6, 0xbe, 0x32, 0xd2, 0x50, 0x3c, 0x38, 0xf6, 0x1a, 0x3e,
  0xcc, 0x08, 0xfa, 0xbd, 0xa6, 0xc7, 0x9b, 0x3c, 0x8d, 0x7d, 0x9d, 0xbd,
  0x0d, 0x92, 0x83, 0xbc, 0xd6, 0x10, 0x00, 0xbe, 0x03, 0x80, 0x55, 0x3b,
  0x23, 0xe5, 0x3e, 0xbc, 0xcc, 0xf7, 0xa0, 0xbd, 0xa2, 0x85, 0xc3, 0xbd,
  0x05, 0xae, 0xa4, 0xbe, 0x6f, 0xf2, 0xde, 0xbc, 0x59, 0x1a, 0xf4, 0xbd,
  0x78, 0x8e, 0x43, 0xbd, 0xb3, 0x8f, 0xfc, 0xbd, 0x3c, 0x9d, 0xb8, 0xbd,
  0xb7, 0x88, 0x61, 0x3e, 0x86, 0x18, 0xea, 0x3d, 0x7d, 0x74, 0x3b, 0x3c,
  0xe9, 0x5c, 0x15, 0xbe, 0x6d, 0x30, 0x05, 0x3c, 0x42, 0xb1, 0xd7, 0xbb,
  0x44, 0x03, 0x0c, 0x3e, 0x73, 0x01, 0x70, 0xbe, 0xef, 0x49, 0x8c, 0xbe,
  0x8e, 0xd7, 0xc7, 0xbd, 0x33, 0x4e, 0xa0, 0xbd, 0x15, 0x6c, 0x89, 0xbd,
  0x44, 0x44, 0xaf, 0xbc, 0xc1, 0xe6, 0x4b, 0xbd, 0x03, 0x58, 0xd7, 0x3d,
  0x8f, 0xf5, 0x97, 0x3e, 0x76, 0x58, 0x15, 0xbd, 0xb6, 0x63, 0x9d, 0x3d,
  0x8e, 0x98, 0xd1, 0x3c, 0x8e, 0xd4, 0xa0, 0x3c, 0xe9, 0x10, 0x9a, 0xbc,
  0xd1, 0x16, 0xb1, 0xbd, 0x0d, 0x6a, 0xea, 0x3d, 0x29, 0xe1, 0x05, 0xbe,
  0x4a, 0x63, 0x24, 0xbe, 0x9e, 0xe6, 0x04, 0xbd, 0x1c, 0x77, 0x35, 0xbd,
  0x81, 0x31, 0xce, 0x3c, 0x48, 0x46, 0x64, 0x3d, 0xe1, 0xbe, 0xcc, 0x3b,
  0x19, 0xad, 0x56, 0xbe, 0x52, 0x8e, 0x52, 0x3d, 0x8b, 0x7d, 0x1a, 0xbe,
  0x17, 0x8b, 0xec, 0xbb, 0xae, 0xe5, 0x84, 0xbc, 0x5e, 0x55, 0xa4, 0xbd,
  0xb6, 0xab, 0xd5, 0xbd, 0x31, 0x0f, 0x65, 0xbe, 0x6f, 0x74, 0xf1, 0x3d,
  0xdc, 0xdf, 0x3c, 0xbd, 0x27, 0xad, 0x35, 0xbe, 0x87, 0x81, 0xee, 0x3c,
  0x36, 0x02, 0x1f, 0x3c, 0xfd, 0x8c, 0xd8, 0x3d, 0x33, 0x26, 0x43, 0xbd,
  0x08, 0x19, 0xea, 0x3c, 0x6c, 0xca, 0x49, 0x3e, 0x37, 0xb6, 0xd2, 0x3d,
  0xfb, 0xcc, 0xc1, 0x3b, 0x39, 0x3c, 0x8e, 0x3d, 0x38, 0x16, 0xd3, 0xbc,
  0xd6, 0xe9, 0x93, 0xbd, 0x91, 0x59, 0x39, 0xbe, 0x7b, 0x7c, 0x6d, 0xbd,
  0x54, 0x7a, 0x6a, 0xbc, 0x82, 0x35, 0x0e, 0xbd, 0x06, 0x02, 0x9b, 0xbd,
  0xd5, 0xfb, 0x3b, 0x3d, 0x12, 0x48, 0x1d, 0x3e, 0xc4, 0xf4, 0x00, 0xbe,
  0x0f, 0xa2, 0x82, 0x3e, 0x72, 0x71, 0x5e, 0x3d, 0x92, 0x07, 0x00, 0x3e,
  0xf0, 0x28, 0x8e, 0x3e, 0x0f, 0x97, 0x5c, 0xbd, 0x6e, 0x0c, 0x64, 0xbc,
  0x03, 0xe4, 0x7e, 0xbe, 0x3d, 0x87, 0x34, 0xbd, 0xe1, 0x72, 0x81, 0xbd,
  0x69, 0x73, 0x81, 0xbd, 0xbd, 0x2b, 0x84, 0x3e, 0x48, 0x13, 0x23, 0x3c,
  0x31, 0xc7, 0x35, 0x3b, 0x9f, 0xc9, 0xaa, 0xbd, 0x67, 0xe2, 0x26, 0xbe,
  0xde, 0x95, 0xe1, 0x3d, 0x17, 0x3b, 0xa1, 0xbc, 0xcc, 0x96, 0x3a, 0xbe,
  0xd9, 0x42, 0x11, 0xbe, 0x2c, 0x58, 0x08, 0xbe, 0xae, 0x4a, 0xf2, 0x3d,
  0x50, 0x0d, 0x22, 0x3e, 0xef, 0x63, 0xbd, 0xbb, 0xa8, 0x65, 0xe7, 0x3c,
  0xa4, 0x3b, 0xfd, 0x3d, 0xf3, 0xc8, 0x9c, 0xbd, 0xab, 0x61, 0xaf, 0xbd,
  0xfb, 0x41, 0x1d, 0xbe, 0xe7, 0x43, 0x95, 0x3d, 0x32, 0xad, 0xb6, 0xbd,
  0x1f, 0x2e, 0x4e, 0xbe, 0x0d, 0x83, 0x5e, 0xbe, 0x09, 0x06, 0x87, 0xbd,
  0x29, 0x0c, 0xa2, 0xbe, 0xd7, 0x5e, 0x6d, 0xbe, 0xd2, 0x33, 0x6f, 0xbe,
  0x00, 0x42, 0x51, 0xbe, 0xeb, 0xb7, 0xfe, 0xbd, 0x8b, 0x1a, 0xc1, 0x3a,
  0x72, 0x28, 0x19, 0xbe, 0x56, 0xd6, 0x48, 0x3d, 0x68, 0x6a, 0xf0, 0xb8,
  0x94, 0x4d, 0x0b, 0xbe, 0x01, 0x30, 0x38, 0xbe, 0xe0, 0x7c, 0xa8, 0xbd,
  0x1f, 0xe8, 0xb6, 0xbc, 0xa5, 0x47, 0x39, 0xbe, 0xee, 0x5a, 0x17, 0xbf,
  0x66, 0x7e, 0x62, 0x3a, 0x77, 0x8f, 0x0d, 0xbf, 0x9f, 0xc4, 0x06, 0x3e,
  0x60, 0xd4, 0x05, 0x3c, 0xe4, 0x97, 0x8e, 0xbc, 0xaa, 0x2d, 0x97, 0xbe,
  0x33, 0x43, 0x80, 0x3d, 0x94, 0x3e, 0x49, 0x3d, 0xfb, 0xf0, 0x86, 0xbe,
  0x16, 0x63, 0x0b, 0xbd, 0x17, 0xf8, 0x03, 0x3e, 0x69, 0x4e, 0x41, 0x3c,
  0x34, 0x9e, 0xa1, 0x3d, 0xbf, 0xc8, 0xea, 0xbd, 0xb5, 0xe7, 0xa7, 0x3d,
  0xef, 0x81, 0x25, 0xbe, 0x4c, 0xd0, 0xee, 0xbd, 0x8a, 0xdb, 0x17, 0xbe,
  0xd8, 0x0a, 0x1b, 0x3e, 0xbd, 0xff, 0x2b, 0x3e, 0xf4, 0x8a, 0x40, 0xbe,
  0x86, 0xba, 0x16, 0xbe, 0x61, 0xa4, 0x2f, 0xbc, 0x8f, 0x64, 0xc0, 0xbd,
  0x0e, 0x64, 0x14, 0xbd, 0x36, 0xe8, 0xce, 0x3b, 0xe2, 0x63, 0xf4, 0xbd,
  0xb6, 0xd7, 0x89, 0xbe, 0x72, 0x10, 0x67, 0x3d, 0x6c, 0xdb, 0x2b, 0xbe,
  0x42, 0xd7, 0xa4, 0xbd, 0x7f, 0x30, 0x0c, 0xbe, 0xb2, 0x72, 0x26, 0x3e,
  0xd0, 0xe2, 0x15, 0xbe, 0x25, 0x9c, 0xd1, 0x3d, 0x1f, 0x53, 0x71, 0x3b,
  0xb7, 0xb2, 0x25, 0xbe, 0x8d, 0x68, 0x91, 0xbe, 0x75, 0x2d, 0xc5, 0xbd,
  0x5b, 0x4e, 0xa9, 0xbd, 0x62, 0xce, 0x06, 0xbe, 0x52, 0x5f, 0x23, 0x3e,
  0x72, 0x1b, 0x47, 0xbc, 0x9d, 0x06, 0x92, 0xbe, 0x6f, 0x99, 0x9f, 0xbd,
  0x91, 0x19, 0x13, 0xbe, 0x6e, 0xbf, 0x9d, 0xbe, 0x04, 0xf1, 0xd1, 0xbe,
  0xd8, 0x81, 0x87, 0xbd, 0x08, 0xf5, 0x83, 0xbe, 0xa6, 0xb6, 0x57, 0x3d,
  0x95, 0xed, 0x4b, 0xbd, 0x4f, 0x15, 0x8f, 0x3d, 0xa9, 0xec, 0x6c, 0xbe,
  0x4e, 0x62, 0x00, 0x3d, 0x4a, 0x6c, 0xaa, 0x3d, 0xce, 0x15, 0x10, 0x3e,
  0xe6, 0xdf, 0xa9, 0xbd, 0x53, 0x19, 0x74, 0x3e, 0x34, 0x62, 0xdc, 0x3e,
  0x4c, 0xd2, 0x10, 0xbd, 0x20, 0x1c, 0xb9, 0xbe, 0xe1, 0x61, 0xd1, 0xbd,
  0xf7, 0x61, 0xc9, 0x3a, 0xbb, 0x73, 0xea, 0x3d, 0x5d, 0x22, 0x06, 0x3e,
  0xc3, 0xad, 0x64, 0x3e, 0xb5, 0x46, 0x50, 0x3e, 0x95, 0x30, 0x9b, 0xbd,
  0xdc, 0x0a, 0xa0, 0x3d, 0x36, 0xef, 0x97, 0xbe, 0x3e, 0x75, 0xf7, 0x3b,
  0x39, 0xd2, 0xba, 0xbd, 0x6a, 0xd1, 0xbe, 0xbd, 0x96, 0x0f, 0xae, 0xbd,
  0xdd, 0x8e, 0x84, 0xbe, 0x7f, 0x31, 0x12, 0xbe, 0xd0, 0xc1, 0x57, 0xbe,
  0x5e, 0x2b, 0xf5, 0xbe, 0xa2, 0x87, 0xaf, 0xbd, 0xa3, 0x18, 0x8a, 0xbe,
  0xaf, 0xfd, 0x9f, 0xbe, 0x7c, 0x6e, 0xb2, 0xbe, 0xcf, 0xf9, 0x0c, 0x3c,
  0xb7, 0xfb, 0x49, 0xbd, 0x61, 0x74, 0x9f, 0x3d, 0x4c, 0xae, 0x82, 0xbe,
  0x10, 0x9d, 0xcf, 0xbd, 0x76, 0x7e, 0x9e, 0x3d, 0xb9, 0x12, 0x2f, 0x3d,
  0x91, 0x34, 0x02, 0xbe, 0x6b, 0xa5, 0x48, 0xbe, 0xd7, 0x8f, 0x05, 0x3d,
  0xc7, 0xe6, 0x45, 0xbe, 0x67, 0xfc, 0xad, 0xbe, 0xee, 0x35, 0xac, 0xbd,
  0x53, 0x97, 0x67, 0xbe, 0x56, 0x8a, 0xab, 0xbe, 0x6d, 0xf9, 0x46, 0xbd,
  0x47, 0x6c, 0x1d, 0x3d, 0x0e, 0xba, 0x29, 0x3d, 0xba, 0x0c, 0x24, 0x3d,
  0xa4, 0x67, 0x5a, 0xbb, 0x7e, 0x0a, 0x77, 0xbc, 0x65, 0xb0, 0x4f, 0x3d,
  0x79, 0x56, 0x2c, 0xbd, 0xf3, 0x90, 0xf1, 0x3d, 0x60, 0x32, 0x82, 0xbe,
  0x4f, 0x3a, 0x12, 0xbe, 0x93, 0xf6, 0xe2, 0x3d, 0x71, 0x6d, 0x00, 0xbf,
  0x68, 0x2f, 0x1d, 0xbe, 0x34, 0xa1, 0xa2, 0xbe, 0x45, 0xf5, 0x23, 0xbf,
  0xf3, 0xf5, 0xa7, 0xbb, 0xdc, 0x29, 0x05, 0xbe, 0xc7, 0x3c, 0x50, 0x3d,
  0x2e, 0x27, 0xc3, 0xbe, 0x3a, 0x46, 0x71, 0x3d, 0x78, 0x9f, 0xee, 0x3d,
  0x1d, 0x02, 0x93, 0xbd, 0x47, 0x1c, 0x87, 0x3b, 0x5e, 0x1d, 0x91, 0xbc,
  0x54, 0xd4, 0xb4, 0xbd, 0x4b, 0x5d, 0x23, 0xbe, 0xbb, 0x5d, 0x99, 0x3e,
  0x6f, 0xbf, 0x46, 0x3d, 0xb7, 0xa9, 0x8f, 0xbd, 0xbd, 0x35, 0x49, 0x3e,
  0x83, 0x5f, 0x69, 0xbd, 0x2b, 0x8d, 0x73, 0x3e, 0x39, 0x57, 0x86, 0x3e,
  0x19, 0xf2, 0x84, 0x3e, 0x1d, 0x17, 0x89, 0xbe, 0x24, 0xf0, 0x8a, 0xb9,
  0x0f, 0x6f, 0x09, 0xbe, 0xad, 0x9d, 0x16, 0x3d, 0x0f, 0x7a, 0x3e, 0xbd,
  0x21, 0x5c, 0x2b, 0xbd, 0xdf, 0x71, 0x14, 0x3d, 0xf8, 0xdf, 0x61, 0xbe,
  0x8c, 0xac, 0x59, 0x3e, 0x5a, 0xc2, 0xf1, 0xbd, 0x3f, 0x27, 0xb6, 0x3c,
  0x03, 0x49, 0xae, 0x3e, 0x41, 0x29, 0x08, 0x3e, 0x1c, 0xa8, 0xb9, 0x3e,
  0x6b, 0x32, 0x54, 0x3e, 0x59, 0x7d, 0x02, 0x3d, 0x69, 0xb0, 0x1e, 0x3d,
  0x1a, 0xa9, 0x16, 0xbe, 0xd3, 0x70, 0xe3, 0xbc, 0xc3, 0x46, 0xb6, 0x3d,
  0x72, 0xd5, 0x58, 0x3d, 0x5c, 0x24, 0x03, 0x3e, 0xfc, 0x3b, 0x79, 0xbd,
  0xc7, 0x96, 0xd1, 0xbe, 0xd2, 0xb0, 0xf5, 0x3d, 0x57, 0x1d, 0x65, 0xbd,
  0x44, 0xaa, 0x17, 0xbd, 0x10, 0x77, 0x7d, 0xbd, 0xa3, 0x2a, 0x1a, 0x3e,
  0x57, 0xd7, 0x8b, 0x3e, 0xe9, 0x6d, 0x4d, 0x3d, 0x00, 0xf3, 0x30, 0x3e,
  0xd2, 0xc3, 0x30, 0xbd, 0xc2, 0x76, 0xb8, 0xbb, 0x88, 0x73, 0x2b, 0x3e,
  0x53, 0xde, 0x5f, 0xbe, 0xd6, 0xd5, 0xa8, 0xbd, 0x0e, 0xc4, 0x2f, 0xbe,
  0xa3, 0x7c, 0x42, 0xbc, 0x56, 0x8f, 0x91, 0xbe, 0x9d, 0x27, 0xca, 0xbd,
  0x1c, 0x08, 0x90, 0xbd, 0x49, 0x4b, 0x3c, 0xbc, 0x7f, 0x4b, 0x70, 0xbe,
  0xd4, 0xb3, 0x96, 0xbe, 0x7c, 0x13, 0x8f, 0xbe, 0x0a, 0x7a, 0x84, 0xbd,
  0x0c, 0x87, 0xc4, 0x3c, 0x3c, 0x7e, 0xdd, 0xbd, 0xa3, 0x1c, 0x13, 0xbf,
  0xfe, 0x14, 0xd4, 0xbb, 0xd2, 0xe7, 0x57, 0xbe, 0x77, 0x3a, 0x5d, 0xbe,
  0xe8, 0xf1, 0xa3, 0xbe, 0x81, 0x2b, 0xc8, 0x3d, 0xa3, 0x01, 0x57, 0xbe,
  0x7d, 0xca, 0xd1, 0x3d, 0xf2, 0x6b, 0xc9, 0xbd, 0x85, 0xd9, 0x11, 0xbd,
  0x2f, 0xf7, 0x13, 0xbd, 0x1e, 0x10, 0xab, 0xbe, 0x22, 0xa2, 0x0e, 0x3e,
  0x87, 0x23, 0x0c, 0xbe, 0x92, 0xc6, 0xfb, 0xbd, 0xbc, 0x07, 0x4f, 0xbd,
  0x5a, 0x9a, 0x17, 0xbf, 0x9e, 0xed, 0x02, 0xbe, 0x2c, 0x65, 0x2d, 0xbe,
  0x1c, 0x24, 0xbc, 0xbe, 0x41, 0x13, 0xb8, 0xbe, 0x3e, 0x30, 0x21, 0x3e,
  0x8f, 0x46, 0x4a, 0xbe, 0x80, 0x1f, 0xee, 0xbd, 0x14, 0xe1, 0x14, 0x3c,
  0x57, 0xfa, 0x46, 0xbd, 0x4e, 0x2f, 0x91, 0xba, 0x8b, 0x2d, 0x97, 0xbe,
  0x72, 0xdd, 0xd6, 0xbd, 0x6e, 0x9e, 0x74, 0xbe, 0xae, 0x57, 0x0c, 0x3e,
  0x0b, 0xfe, 0xbf, 0xbd, 0x65, 0x82, 0x01, 0xbf, 0x4b, 0xd9, 0xcd, 0x3d,
  0xdc, 0x9e, 0x2b, 0xbb, 0x37, 0x62, 0x37, 0xbe, 0xbe, 0x90, 0x88, 0x3d,
  0x5c, 0x2a, 0x8f, 0xbd, 0xac, 0xbf, 0x03, 0xbd, 0x8a, 0x48, 0xee, 0x3d,
  0x2f, 0x09, 0xc6, 0xbe, 0xe5, 0xb7, 0xe4, 0xbd, 0x73, 0xcd, 0x45, 0xbe,
  0xac, 0x63, 0x04, 0xbf, 0xad, 0xc8, 0xca, 0xbc, 0x68, 0xcf, 0x9f, 0xbe,
  0x37, 0x5b, 0x44, 0xbe, 0x93, 0x50, 0x6f, 0xbe, 0xeb, 0x07, 0x16, 0xbf,
  0x05, 0x34, 0x06, 0xbe, 0x63, 0x49, 0xb8, 0xbd, 0xe4, 0x6d, 0x5b, 0xbe,
  0xc7, 0xc6, 0x2a, 0x3e, 0x16, 0x74, 0x19, 0xbd, 0x41, 0x27, 0xe3, 0xbd,
  0xf7, 0xbe, 0x4a, 0x3e, 0xd3, 0xf1, 0x9a, 0xbd, 0x51, 0x22, 0x31, 0xbe,
  0xf5, 0xf2, 0x93, 0x3e, 0xd2, 0xf8, 0xef, 0x3d, 0xf9, 0xb6, 0x3f, 0x3e,
  0x3b, 0xc1, 0xa8, 0x3e, 0x74, 0xfa, 0xab, 0xbc, 0xe1, 0xd8, 0xf4, 0xbd,
  0xa7, 0x5b, 0x41, 0xbe, 0x6a, 0x02, 0xd5, 0x3b, 0xf0, 0x89, 0xaa, 0x3c,
  0x24, 0xfd, 0x17, 0x3d, 0x0d, 0x39, 0x8c, 0x3e, 0x29, 0xd8, 0xe0, 0xbd,
  0x24, 0x4d, 0x3d, 0xbd, 0x5b, 0xf0, 0xad, 0x3e, 0xc2, 0x9d, 0xbc, 0x3d,
  0x8d, 0x10, 0xae, 0xbc, 0x0d, 0x37, 0xa3, 0x3e, 0x07, 0x9a, 0xb4, 0x3d,
  0x7c, 0xcd, 0xcb, 0x3d, 0x62, 0x7c, 0x86, 0x3e, 0xef, 0x61, 0xfb, 0x3c,
  0x39, 0xf9, 0xf5, 0x3d, 0x5c, 0x26, 0x10, 0xbe, 0x13, 0x51, 0x3c, 0xbe,
  0x65, 0xdb, 0x44, 0x3d, 0x6d, 0xe9, 0x68, 0x3d, 0x42, 0xa0, 0x43, 0x3e,
  0x99, 0x84, 0x16, 0xbd, 0x4f, 0x3d, 0xec, 0xbc, 0xc1, 0x20, 0x09, 0x3e,
  0x52, 0xc0, 0xf2, 0xbd, 0x81, 0xb8, 0x91, 0x3d, 0x24, 0xb6, 0x14, 0x3b,
  0xf3, 0x3b, 0x2e, 0x3b, 0xea, 0x49, 0xe3, 0x3d, 0xf0, 0xab, 0x86, 0x3e,
  0x9a, 0x47, 0x00, 0xbd, 0xec, 0xb5, 0x1a, 0x3e, 0x34, 0x18, 0x0b, 0xbe,
  0x64, 0x13, 0x45, 0x3d, 0x43, 0x7d, 0x60, 0xbd, 0x51, 0xa6, 0x16, 0xbe,
  0xe0, 0x4b, 0xb4, 0x3e, 0xfd, 0xae, 0x0d, 0x3e, 0xcc, 0xad, 0x41, 0xbe,
  0x59, 0xb7, 0x2e, 0xbe, 0xe3, 0x57, 0x8f, 0x3d, 0xd5, 0x06, 0x28, 0x3d,
  0x91, 0xe0, 0x3b, 0x3e, 0xc4, 0x71, 0x0b, 0x3e, 0x43, 0x86, 0x8e, 0x3e,
  0x57, 0x10, 0xb9, 0x3e, 0xe8, 0x4a, 0x91, 0xbe, 0x3a, 0x61, 0x95, 0xbd,
  0x64, 0xa2, 0xb6, 0xbe, 0x5a, 0x6b, 0x9f, 0xbe, 0xb5, 0x3f, 0xc8, 0x3b,
  0x5b, 0x1a, 0x36, 0xbe, 0xc9, 0x21, 0xbb, 0xbc, 0xc8, 0xcf, 0x8e, 0xbd,
  0x8c, 0xf7, 0xc2, 0x3d, 0x0e, 0xca, 0xfc, 0xbe, 0x3c, 0x00, 0xb4, 0xbe,
  0xdd, 0x12, 0x1f, 0xbd, 0x1e, 0xb1, 0xd3, 0x3e, 0xdf, 0x92, 0xce, 0xbc,
  0x55, 0x19, 0x2e, 0xbe, 0xc7, 0xbe, 0x80, 0x3e, 0x55, 0x46, 0x65, 0xbd,
  0x6d, 0xe8, 0x33, 0x3e, 0x0c, 0x82, 0x13, 0xbe, 0x43, 0x2a, 0x94, 0xbd,
  0x3f, 0x23, 0x02, 0xbe, 0x78, 0xb9, 0x8e, 0xbe, 0xd4, 0x34, 0x94, 0xbe,
  0xb6, 0x0e, 0xa7, 0xbd, 0x5b, 0xb2, 0x16, 0xbe, 0x01, 0x8d, 0x91, 0xbd,
  0x38, 0xb8, 0x40, 0xbf, 0xf3, 0x9e, 0x03, 0xbb, 0x92, 0x9b, 0x12, 0xbe,
  0xec, 0xdf, 0x0b, 0xbf, 0xde, 0xaa, 0xb4, 0xbe, 0x6d, 0x32, 0xc3, 0xbe,
  0x37, 0xc1, 0x3a, 0xbd, 0x0d, 0xa7, 0x75, 0x3e, 0x6c, 0x69, 0x0f, 0x3d,
  0x20, 0x36, 0x04, 0x3d, 0xe3, 0xc9, 0xa5, 0xbd, 0x2b, 0x24, 0x47, 0xbd,
  0xc2, 0x4f, 0x12, 0xbf, 0x0d, 0x09, 0x81, 0xbd, 0xe7, 0x2a, 0xef, 0xbd,
  0x7e, 0xda, 0xbd, 0xbe, 0x74, 0x4f, 0xd8, 0xbe, 0xc8, 0x59, 0x0e, 0xbe,
  0xfb, 0xad, 0x4a, 0xbe, 0xbe, 0xe5, 0x2e, 0xbf, 0xdb, 0x2e, 0xec, 0xbe,
  0xc2, 0xc7, 0xae, 0xbe, 0x0e, 0x4f, 0x1f, 0xbe, 0xf1, 0x56, 0x1f, 0xbf,
  0x3a, 0x28, 0x9c, 0xbd, 0x97, 0xdc, 0xa5, 0xb8, 0xd7, 0x16, 0x11, 0xbd,
  0xdb, 0x92, 0x1f, 0xbe, 0x91, 0xc0, 0xec, 0x3c, 0xd6, 0xd8, 0xb9, 0xbd,
  0x9f, 0x72, 0xa8, 0xbe, 0xdb, 0x2e, 0xcf, 0x3e, 0x2f, 0x29, 0x49, 0xbe,
  0x21, 0xfe, 0xd5, 0xbd, 0xb3, 0x44, 0xca, 0xbc, 0x09, 0xf8, 0xc2, 0xbd,
  0x7c, 0x75, 0x8d, 0x3e, 0x8f, 0x43, 0x99, 0x3d, 0x2f, 0x6e, 0x70, 0x3e,
  0xde, 0x31, 0xbc, 0xbe, 0xd8, 0x72, 0x9b, 0xbd, 0xa8, 0x09, 0xdf, 0xbd,
  0xa7, 0xad, 0x8c, 0x3d, 0x91, 0xbb, 0x94, 0xbd, 0xa4, 0x41, 0x27, 0x3d,
  0xad, 0xa9, 0x8d, 0xbd, 0x0f, 0xe4, 0x59, 0xbe, 0xe8, 0x69, 0x2b, 0x3e,
  0x74, 0x51, 0xd7, 0x3d, 0xcc, 0x30, 0x16, 0xbd, 0x79, 0x08, 0x93, 0x3e,
  0x4a, 0x24, 0xa4, 0x3c, 0x89, 0x8b, 0x90, 0x3e, 0xb1, 0x80, 0xf0, 0x3e,
  0xdd, 0x09, 0xe8, 0xbd, 0x8f, 0xd3, 0x51, 0x3d, 0x1d, 0xe0, 0xa9, 0xbd,
  0x49, 0x15, 0x94, 0xbe, 0x19, 0x50, 0x52, 0x3b, 0x73, 0x02, 0xe2, 0xbe,
  0x15, 0x91, 0xe6, 0x3c, 0x80, 0xb8, 0x65, 0xbb, 0x99, 0xd9, 0x0e, 0xbd,
  0xd8, 0x25, 0x07, 0x3e, 0xdb, 0xbd, 0x06, 0x3d, 0x37, 0x1a, 0x3f, 0x3d,
  0x50, 0x9a, 0xc1, 0xbc, 0xb3, 0x8d, 0xe9, 0x3d, 0x1d, 0x93, 0xdc, 0x3e,
  0x59, 0x11, 0x2a, 0x3d, 0xaa, 0x2c, 0x51, 0x3d, 0xb5, 0x9e, 0x91, 0xbd,
  0x64, 0x67, 0x92, 0xbd, 0x63, 0xa7, 0xb9, 0x3d, 0x07, 0x22, 0x4d, 0x3d,
  0x20, 0x31, 0x3e, 0x3b, 0x41, 0x1b, 0x15, 0xbf, 0x5e, 0xb5, 0xfa, 0xbe,
  0x1a, 0x33, 0xe5, 0x3d, 0xce, 0xf3, 0xb1, 0xbe, 0x32, 0x86, 0x34, 0xbf,
  0x31, 0x00, 0xd8, 0xbe, 0xfc, 0x91, 0x0e, 0xbf, 0x7c, 0xa1, 0x02, 0xbe,
  0xce, 0xd3, 0x82, 0xbc, 0xf6, 0xd5, 0xcd, 0xbc, 0x10, 0xfc, 0x25, 0xbe,
  0x95, 0xed, 0xed, 0xbe, 0x05, 0xa1, 0xa1, 0xbd, 0xdd, 0xee, 0xd4, 0xbd,
  0x40, 0xd2, 0x14, 0x3e, 0x0d, 0xf3, 0xd2, 0xbd, 0x8b, 0x07, 0x09, 0x3e,
  0x66, 0xe6, 0xe2, 0xbe, 0xaa, 0xb1, 0x34, 0x3d, 0x7c, 0x08, 0x62, 0xbd,
  0xa2, 0xb9, 0x84, 0xbd, 0xd5, 0x3c, 0x14, 0xbf, 0xb3, 0xcb, 0x30, 0x3d,
  0x7d, 0x76, 0x7b, 0x3e, 0x70, 0x77, 0x1d, 0x3d, 0x0b, 0x93, 0x45, 0x3e,
  0x58, 0x79, 0x3f, 0xbd, 0x9c, 0xf5, 0xb6, 0xbe, 0x1d, 0xa3, 0x82, 0x3d,
  0x85, 0x23, 0xf1, 0xbd, 0xc4, 0x96, 0xec, 0x3d, 0xda, 0xbe, 0x45, 0x3c,
  0xd8, 0x90, 0x22, 0x3d, 0x42, 0x99, 0x00, 0xbf, 0xae, 0xca, 0x5c, 0x3d,
  0xa4, 0x51, 0x80, 0xbe, 0x18, 0xb4, 0xde, 0xbe, 0xbb, 0x0d, 0xe5, 0xbd,
  0xf8, 0xbf, 0x69, 0xbd, 0x94, 0x02, 0xeb, 0x3d, 0x0e, 0x3f, 0x80, 0xbe,
  0xaf, 0x94, 0xd8, 0xbd, 0x16, 0x99, 0x95, 0xbc, 0x38, 0xf6, 0xcb, 0x3e,
  0x4f, 0xc9, 0x34, 0x3d, 0x3b, 0x46, 0xd8, 0x3d, 0x07, 0x7b, 0x56, 0x3d,
  0x95, 0x5d, 0x88, 0x3c, 0x34, 0x0c, 0x2f, 0x3d, 0x0b, 0x67, 0x26, 0xbe,
  0xe1, 0x4f, 0x8a, 0x3d, 0x23, 0xb2, 0x91, 0xbe, 0xb7, 0xe0, 0x00, 0x3d,
  0x25, 0x89, 0xdc, 0x3d, 0xea, 0x56, 0x3a, 0x3e, 0xf6, 0xaa, 0xca, 0x3d,
  0xdb, 0xac, 0x93, 0xbe, 0x72, 0xaf, 0x74, 0xbd, 0x4b, 0x56, 0x3c, 0xbe,
  0x4b, 0xdf, 0x9c, 0x3e, 0x49, 0x69, 0xa7, 0x3c, 0x92, 0x1b, 0x33, 0xbe,
  0x45, 0xe5, 0xd3, 0xbd, 0x64, 0x8b, 0x2d, 0x3d, 0x00, 0x18, 0xb3, 0x3d,
  0x93, 0x28, 0xff, 0xbe, 0x3b, 0xb1, 0x09, 0x3e, 0x52, 0x56, 0xc1, 0xbe,
  0xe7, 0x0f, 0x80, 0xbd, 0x06, 0x7a, 0xf2, 0x3d, 0xf1, 0x4b, 0x07, 0xbe,
  0x1f, 0x0a, 0x35, 0x3e, 0xd2, 0x57, 0x84, 0xbe, 0xb6, 0xbd, 0x94, 0xbe,
  0x8e, 0x91, 0x26, 0xbd, 0x54, 0x5c, 0xd1, 0x3e, 0x3e, 0x30, 0x5f, 0xbc,
  0x7c, 0x55, 0x12, 0xbe, 0xd6, 0x30, 0x76, 0xbe, 0x5a, 0xe5, 0xc7, 0xbe,
  0x3f, 0x3f, 0xbd, 0x3d, 0xed, 0x96, 0xb1, 0xbe, 0x69, 0x5a, 0xe5, 0x3c,
  0x80, 0xb7, 0xcc, 0xbe, 0x92, 0xc5, 0xde, 0xbd, 0xcd, 0x2b, 0x02, 0x3e,
  0xcb, 0xb2, 0x9c, 0xbe, 0xb3, 0x10, 0x07, 0x3d, 0x09, 0xad, 0xef, 0xbe,
  0x76, 0x85, 0x97, 0xbe, 0xa1, 0xc5, 0x06, 0x3e, 0xa1, 0x40, 0x36, 0x3e,
  0x06, 0x4f, 0xd2, 0x3c, 0x44, 0x67, 0xe4, 0xbd, 0x59, 0x36, 0xdc, 0xbe,
  0x40, 0xfb, 0x90, 0xbe, 0xea, 0xed, 0xb5, 0x3d, 0xa3, 0xef, 0x46, 0xbe,
  0x81, 0x17, 0x89, 0xbe, 0xc5, 0xab, 0x99, 0xbe, 0x81, 0xe3, 0x19, 0x3d,
  0x8d, 0xdc, 0x63, 0x3d, 0x36, 0x67, 0x30, 0xbe, 0x44, 0x64, 0xca, 0x3c,
  0xf5, 0x1f, 0x14, 0xbe, 0x52, 0x34, 0x7b, 0xbe, 0xbe, 0xc9, 0x2a, 0xbc,
  0x97, 0xed, 0x4f, 0x3d, 0x3e, 0xa7, 0x9e, 0x3d, 0x69, 0x67, 0x33, 0xbd,
  0x66, 0xfd, 0xff, 0xff, 0x10, 0x00, 0x00, 0x00, 0x07, 0x00, 0x00, 0x00,
  0x14, 0x00, 0x00, 0x00, 0x2c, 0x00, 0x00, 0x00, 0x02, 0x00, 0x00, 0x00,
  0x10, 0x00, 0x00, 0x00, 0x70, 0x00, 0x00, 0x00, 0x17, 0x00, 0x00, 0x00,
  0x73, 0x65, 0x71, 0x75, 0x65, 0x6e, 0x74, 0x69, 0x61, 0x6c, 0x2f, 0x64,
  0x65, 0x6e, 0x73, 0x65, 0x2f, 0x4d, 0x61, 0x74, 0x4d, 0x75, 0x6c, 0x00,
  0xd0, 0xfc, 0xff, 0xff, 0xda, 0xfd, 0xff, 0xff, 0x04, 0x00, 0x00, 0x00,
  0x08, 0x00, 0x00, 0x00, 0xff, 0xff, 0xff, 0xff, 0x70, 0x00, 0x00, 0x00,
  0x00, 0x00, 0x0e, 0x00, 0x18, 0x00, 0x08, 0x00, 0x07, 0x00, 0x0c, 0x00,
  0x10, 0x00, 0x14, 0x00, 0x0e, 0x00, 0x00, 0x00, 0x00, 0x00, 0x00, 0x02,
  0x10, 0x00, 0x00, 0x00, 0x06, 0x00, 0x00, 0x00, 0x10, 0x00, 0x00, 0x00,
  0x2c, 0x00, 0x00, 0x00, 0x01, 0x00, 0x00, 0x00, 0x02, 0x00, 0x00, 0x00,
  0x18, 0x00, 0x00, 0x00, 0x73, 0x65, 0x71, 0x75, 0x65, 0x6e, 0x74, 0x69,
  0x61, 0x6c, 0x2f, 0x66, 0x6c, 0x61, 0x74, 0x74, 0x65, 0x6e, 0x2f, 0x43,
  0x6f, 0x6e, 0x73, 0x74, 0x00, 0x00, 0x00, 0x00, 0x38, 0xfd, 0xff, 0xff,
  0x42, 0xfe, 0xff, 0xff, 0x04, 0x00, 0x00, 0x00, 0x0c, 0x00, 0x00, 0x00,
  0xbc, 0xe4, 0x97, 0xbf, 0x72, 0xf4, 0x3c, 0xc0, 0xef, 0x7d, 0x26, 0x40,
  0x26, 0xfe, 0xff, 0xff, 0x10, 0x00, 0x00, 0x00, 0x05, 0x00, 0x00, 0x00,
  0x10, 0x00, 0x00, 0x00, 0x44, 0x00, 0x00, 0x00, 0x01, 0x00, 0x00, 0x00,
  0x03, 0x00, 0x00, 0x00, 0x32, 0x00, 0x00, 0x00, 0x73, 0x65, 0x71, 0x75,
  0x65, 0x6e, 0x74, 0x69, 0x61, 0x6c, 0x2f, 0x64, 0x65, 0x6e, 0x73, 0x65,
  0x5f, 0x31, 0x2f, 0x42, 0x69, 0x61, 0x73, 0x41, 0x64, 0x64, 0x2f, 0x52,
  0x65, 0x61, 0x64, 0x56, 0x61, 0x72, 0x69, 0x61, 0x62, 0x6c, 0x65, 0x4f,
  0x70, 0x2f, 0x72, 0x65, 0x73, 0x6f, 0x75, 0x72, 0x63, 0x65, 0x00, 0x00,
  0xa8, 0xfd, 0xff, 0xff, 0xb2, 0xfe, 0xff, 0xff, 0x04, 0x00, 0x00, 0x00,
  0x40, 0x00, 0x00, 0x00, 0x7d, 0x15, 0x0c, 0xbc, 0x46, 0x31, 0xd1, 0xbf,
  0xc1, 0x72, 0x4d, 0xbc, 0x65, 0x87, 0xff, 0xbb, 0x66, 0x01, 0xce, 0xbf,
  0xdd, 0xa0, 0xdf, 0xbe, 0xe9, 0x41, 0x5a, 0xbf, 0x7b, 0xab, 0xa3, 0xbf,
  0x6a, 0x66, 0xaa, 0x3a, 0xfa, 0x8e, 0xa0, 0x40, 0xfc, 0x9e, 0xdf, 0xbf,
  0x5f, 0x15, 0x08, 0xbf, 0x65, 0x9a, 0x66, 0xbf, 0x8f, 0x10, 0x4c, 0xbf,
  0x2e, 0xd7, 0xc0, 0xbf, 0x79, 0x51, 0x9a, 0xbf, 0xca, 0xfe, 0xff, 0xff,
  0x10, 0x00, 0x00, 0x00, 0x04, 0x00, 0x00, 0x00, 0x10, 0x00, 0x00, 0x00,
  0x44, 0x00, 0x00, 0x00, 0x01, 0x00, 0x00, 0x00, 0x10, 0x00, 0x00, 0x00,
  0x30, 0x00, 0x00, 0x00, 0x73, 0x65, 0x71, 0x75, 0x65, 0x6e, 0x74, 0x69,
  0x61, 0x6c, 0x2f, 0x64, 0x65, 0x6e, 0x73, 0x65, 0x2f, 0x42, 0x69, 0x61,
  0x73, 0x41, 0x64, 0x64, 0x2f, 0x52, 0x65, 0x61, 0x64, 0x56, 0x61, 0x72,
  0x69, 0x61, 0x62, 0x6c, 0x65, 0x4f, 0x70, 0x2f, 0x72, 0x65, 0x73, 0x6f,
  0x75, 0x72, 0x63, 0x65, 0x00, 0x00, 0x00, 0x00, 0x4c, 0xfe, 0xff, 0xff,
  0x56, 0xff, 0xff, 0xff, 0x04, 0x00, 0x00, 0x00, 0x40, 0x00, 0x00, 0x00,
  0x17, 0x0f, 0x23, 0xbb, 0xd5, 0x76, 0xde, 0xbb, 0x92, 0x17, 0xae, 0xbf,
  0x45, 0x60, 0x5e, 0xbe, 0x5e, 0x54, 0x9a, 0xbc, 0xf1, 0x7e, 0x14, 0xbf,
  0xf6, 0x3e, 0xe5, 0xbe, 0x2e, 0x10, 0x1d, 0xbf, 0xaa, 0xcb, 0x79, 0xbf,
  0x83, 0x8b, 0xda, 0xbf, 0x47, 0xf9, 0x08, 0xbf, 0xb2, 0xca, 0x9d, 0xbf,
  0x13, 0x8b, 0x12, 0xbf, 0xdc, 0x29, 0xf3, 0xbf, 0xd5, 0x39, 0x29, 0xbe,
  0x3b, 0x67, 0xd2, 0xbc, 0x6e, 0xff, 0xff, 0xff, 0x10, 0x00, 0x00, 0x00,
  0x03, 0x00, 0x00, 0x00, 0x10, 0x00, 0x00, 0x00, 0x48, 0x00, 0x00, 0x00,
  0x01, 0x00, 0x00, 0x00, 0x10, 0x00, 0x00, 0x00, 0x33, 0x00, 0x00, 0x00,
  0x73, 0x65, 0x71, 0x75, 0x65, 0x6e, 0x74, 0x69, 0x61, 0x6c, 0x2f, 0x63,
  0x6f, 0x6e, 0x76, 0x32, 0x64, 0x5f, 0x31, 0x2f, 0x42, 0x69, 0x61, 0x73,
  0x41, 0x64, 0x64, 0x2f, 0x52, 0x65, 0x61, 0x64, 0x56, 0x61, 0x72, 0x69,
  0x61, 0x62, 0x6c, 0x65, 0x4f, 0x70, 0x2f, 0x72, 0x65, 0x73, 0x6f, 0x75,
  0x72, 0x63, 0x65, 0x00, 0x04, 0x00, 0x06, 0x00, 0x04, 0x00, 0x00, 0x00,
  0x00, 0x00, 0x06, 0x00, 0x08, 0x00, 0x04, 0x00, 0x06, 0x00, 0x00, 0x00,
  0x04, 0x00, 0x00, 0x00, 0x20, 0x00, 0x00, 0x00, 0xd6, 0xc8, 0xb8, 0xbf,
  0x3d, 0x6a, 0x38, 0xc0, 0x27, 0x6f, 0x0b, 0xc0, 0x1e, 0xad, 0xb4, 0xbf,
  0x26, 0x9c, 0xe4, 0xbe, 0xce, 0x41, 0x18, 0xbf, 0x9c, 0xa5, 0x4d, 0xbf,
  0x7a, 0xa4, 0xb4, 0xbf, 0x00, 0x00, 0x0e, 0x00, 0x14, 0x00, 0x04, 0x00,
  0x00, 0x00, 0x08, 0x00, 0x0c, 0x00, 0x10, 0x00, 0x0e, 0x00, 0x00, 0x00,
  0x10, 0x00, 0x00, 0x00, 0x02, 0x00, 0x00, 0x00, 0x10, 0x00, 0x00, 0x00,
  0x44, 0x00, 0x00, 0x00, 0x01, 0x00, 0x00, 0x00, 0x08, 0x00, 0x00, 0x00,
  0x31, 0x00, 0x00, 0x00, 0x73, 0x65, 0x71, 0x75, 0x65, 0x6e, 0x74, 0x69,
  0x61, 0x6c, 0x2f, 0x63, 0x6f, 0x6e, 0x76, 0x32, 0x64, 0x2f, 0x42, 0x69,
  0x61, 0x73, 0x41, 0x64, 0x64, 0x2f, 0x52, 0x65, 0x61, 0x64, 0x56, 0x61,
  0x72, 0x69, 0x61, 0x62, 0x6c, 0x65, 0x4f, 0x70, 0x2f, 0x72, 0x65, 0x73,
  0x6f, 0x75, 0x72, 0x63, 0x65, 0x00, 0x00, 0x00, 0x90, 0xff, 0xff, 0xff,
  0x14, 0x00, 0x18, 0x00, 0x04, 0x00, 0x00, 0x00, 0x08, 0x00, 0x0c, 0x00,
  0x10, 0x00, 0x00, 0x00, 0x00, 0x00, 0x14, 0x00, 0x14, 0x00, 0x00, 0x00,
  0x14, 0x00, 0x00, 0x00, 0x01, 0x00, 0x00, 0x00, 0x20, 0x00, 0x00, 0x00,
  0x44, 0x00, 0x00, 0x00, 0x2c, 0x00, 0x00, 0x00, 0x04, 0x00, 0x00, 0x00,
  0x01, 0x00, 0x00, 0x00, 0x40, 0x00, 0x00, 0x00, 0x03, 0x00, 0x00, 0x00,
  0x01, 0x00, 0x00, 0x00, 0x0c, 0x00, 0x00, 0x00, 0x63, 0x6f, 0x6e, 0x76,
  0x32, 0x64, 0x5f, 0x69, 0x6e, 0x70, 0x75, 0x74, 0x00, 0x00, 0x00, 0x00,
  0x04, 0x00, 0x00, 0x00, 0xff, 0xff, 0xff, 0xff, 0x40, 0x00, 0x00, 0x00,
  0x03, 0x00, 0x00, 0x00, 0x01, 0x00, 0x00, 0x00, 0xfc, 0xff, 0xff, 0xff,
  0x04, 0x00, 0x04, 0x00, 0x04, 0x00, 0x00, 0x00
};

unsigned int model_tflite_len = 13052;// Fill the int in `src/model.cc` here